window.GRAPH_URL = URL.createObjectURL(new Blob([`{"format": "graph-model", "modelTopology": {"node": [{"name": "x", "op": "Placeholder", "attr": {"shape": {"shape": {"dim": [{"size": "-1"}, {"size": "-1"}, {"size": "-1"}, {"size": "16"}]}}, "dtype": {"type": "DT_FLOAT"}}}, {"name": "step_size", "op": "Placeholder", "attr": {"shape": {"shape": {}}, "dtype": {"type": "DT_FLOAT"}}}, {"name": "angle", "op": "Placeholder", "attr": {"shape": {"shape": {}}, "dtype": {"type": "DT_FLOAT"}}}, {"name": "fire_rate", "op": "Placeholder", "attr": {"shape": {"shape": {}}, "dtype": {"type": "DT_FLOAT"}}}, {"name": "strided_slice/stack", "op": "Const", "attr": {"value": {"tensor": {"dtype": "DT_INT32", "tensorShape": {"dim": [{"size": "4"}]}, "tensorContent": "AAAAAAAAAAAAAAAAAwAAAA=="}}, "dtype": {"type": "DT_INT32"}}}, {"name": "strided_slice/stack_1", "op": "Const", "attr": {"value": {"tensor": {"dtype": "DT_INT32", "tensorShape": {"dim": [{"size": "4"}]}, "tensorContent": "AAAAAAAAAAAAAAAABAAAAA=="}}, "dtype": {"type": "DT_INT32"}}}, {"name": "strided_slice/stack_2", "op": "Const", "attr": {"value": {"tensor": {"dtype": "DT_INT32", "tensorShape": {"dim": [{"size": "4"}]}, "tensorContent": "AQAAAAEAAAABAAAAAQAAAA=="}}, "dtype": {"type": "DT_INT32"}}}, {"name": "strided_slice", "op": "StridedSlice", "input": ["x", "strided_slice/stack", "strided_slice/stack_1", "strided_slice/stack_2"], "attr": {"T": {"type": "DT_FLOAT"}, "Index": {"type": "DT_INT32"}, "shrink_axis_mask": {"i": "0"}, "begin_mask": {"i": "7"}, "ellipsis_mask": {"i": "0"}, "new_axis_mask": {"i": "0"}, "end_mask": {"i": "7"}}}, {"name": "MaxPool2d", "op": "MaxPool", "input": ["strided_slice"], "attr": {"ksize": {"list": {"i": ["1", "3", "3", "1"]}}, "padding": {"s": "U0FNRQ=="}, "T": {"type": "DT_FLOAT"}, "data_format": {"s": "TkhXQw=="}, "strides": {"list": {"i": ["1", "1", "1", "1"]}}}}, {"name": "Greater/y", "op": "Const", "attr": {"value": {"tensor": {"dtype": "DT_FLOAT", "tensorShape": {}, "floatVal": [0.1]}}, "dtype": {"type": "DT_FLOAT"}}}, {"name": "Greater", "op": "Greater", "input": ["MaxPool2d", "Greater/y"], "attr": {"T": {"type": "DT_FLOAT"}}}, {"name": "Func/PartitionedCall/input/_0", "op": "Identity", "input": ["x"], "attr": {"T": {"type": "DT_FLOAT"}}}, {"name": "PartitionedCall/stack_1/values_0", "op": "Const", "attr": {"value": {"tensor": {"dtype": "DT_FLOAT", "tensorShape": {"dim": [{"size": "3"}, {"size": "3"}]}, "tensorContent": "AAAAAAAAAAAAAAAAAAAAAAAAgD8AAAAAAAAAAAAAAAAAAAAA"}}, "dtype": {"type": "DT_FLOAT"}}}, {"name": "Func/PartitionedCall/input/_1", "op": "Identity", "input": ["angle"], "attr": {"T": {"type": "DT_FLOAT"}}}, {"name": "PartitionedCall/Cos", "op": "Cos", "input": ["Func/PartitionedCall/input/_1"], "attr": {"T": {"type": "DT_FLOAT"}}}, {"name": "PartitionedCall/mul/y", "op": "Const", "attr": {"value": {"tensor": {"dtype": "DT_FLOAT", "tensorShape": {"dim": [{"size": "3"}, {"size": "3"}]}, "tensorContent": "AAAAvgAAAAAAAAA+AACAvgAAAAAAAIA+AAAAvgAAAAAAAAA+"}}, "dtype": {"type": "DT_FLOAT"}}}, {"name": "PartitionedCall/mul", "op": "Mul", "input": ["PartitionedCall/Cos", "PartitionedCall/mul/y"], "attr": {"T": {"type": "DT_FLOAT"}}}, {"name": "PartitionedCall/Sin", "op": "Sin", "input": ["Func/PartitionedCall/input/_1"], "attr": {"T": {"type": "DT_FLOAT"}}}, {"name": "PartitionedCall/mul_1/y", "op": "Const", "attr": {"value": {"tensor": {"dtype": "DT_FLOAT", "tensorShape": {"dim": [{"size": "3"}, {"size": "3"}]}, "tensorContent": "AAAAvgAAgL4AAAC+AAAAAAAAAAAAAAAAAAAAPgAAgD4AAAA+"}}, "dtype": {"type": "DT_FLOAT"}}}, {"name": "PartitionedCall/mul_1", "op": "Mul", "input": ["PartitionedCall/Sin", "PartitionedCall/mul_1/y"], "attr": {"T": {"type": "DT_FLOAT"}}}, {"name": "PartitionedCall/sub", "op": "Sub", "input": ["PartitionedCall/mul", "PartitionedCall/mul_1"], "attr": {"T": {"type": "DT_FLOAT"}}}, {"name": "PartitionedCall/mul_2/y", "op": "Const", "attr": {"value": {"tensor": {"dtype": "DT_FLOAT", "tensorShape": {"dim": [{"size": "3"}, {"size": "3"}]}, "tensorContent": "AAAAvgAAAAAAAAA+AACAvgAAAAAAAIA+AAAAvgAAAAAAAAA+"}}, "dtype": {"type": "DT_FLOAT"}}}, {"name": "PartitionedCall/mul_2", "op": "Mul", "input": ["PartitionedCall/Sin", "PartitionedCall/mul_2/y"], "attr": {"T": {"type": "DT_FLOAT"}}}, {"name": "PartitionedCall/mul_3/y", "op": "Const", "attr": {"value": {"tensor": {"dtype": "DT_FLOAT", "tensorShape": {"dim": [{"size": "3"}, {"size": "3"}]}, "tensorContent": "AAAAvgAAgL4AAAC+AAAAAAAAAAAAAAAAAAAAPgAAgD4AAAA+"}}, "dtype": {"type": "DT_FLOAT"}}}, {"name": "PartitionedCall/mul_3", "op": "Mul", "input": ["PartitionedCall/Cos", "PartitionedCall/mul_3/y"], "attr": {"T": {"type": "DT_FLOAT"}}}, {"name": "PartitionedCall/add", "op": "AddV2", "input": ["PartitionedCall/mul_2", "PartitionedCall/mul_3"], "attr": {"T": {"type": "DT_FLOAT"}}}, {"name": "PartitionedCall/stack_1", "op": "Pack", "input": ["PartitionedCall/stack_1/values_0", "PartitionedCall/sub", "PartitionedCall/add"], "attr": {"T": {"type": "DT_FLOAT"}, "axis": {"i": "-1"}, "N": {"i": "3"}}}, {"name": "PartitionedCall/strided_slice/stack", "op": "Const", "attr": {"value": {"tensor": {"dtype": "DT_INT32", "tensorShape": {"dim": [{"size": "4"}]}, "tensorContent": "AAAAAAAAAAAAAAAAAAAAAA=="}}, "dtype": {"type": "DT_INT32"}}}, {"name": "PartitionedCall/strided_slice/stack_1", "op": "Const", "attr": {"value": {"tensor": {"dtype": "DT_INT32", "tensorShape": {"dim": [{"size": "4"}]}, "tensorContent": "AAAAAAAAAAAAAAAAAAAAAA=="}}, "dtype": {"type": "DT_INT32"}}}, {"name": "PartitionedCall/strided_slice/stack_2", "op": "Const", "attr": {"value": {"tensor": {"dtype": "DT_INT32", "tensorShape": {"dim": [{"size": "4"}]}, "tensorContent": "AQAAAAEAAAABAAAAAQAAAA=="}}, "dtype": {"type": "DT_INT32"}}}, {"name": "PartitionedCall/strided_slice", "op": "StridedSlice", "input": ["PartitionedCall/stack_1", "PartitionedCall/strided_slice/stack", "PartitionedCall/strided_slice/stack_1", "PartitionedCall/strided_slice/stack_2"], "attr": {"T": {"type": "DT_FLOAT"}, "Index": {"type": "DT_INT32"}, "shrink_axis_mask": {"i": "0"}, "begin_mask": {"i": "11"}, "ellipsis_mask": {"i": "0"}, "new_axis_mask": {"i": "4"}, "end_mask": {"i": "11"}}}, {"name": "PartitionedCall/Repeat/ExpandDims/dim", "op": "Const", "attr": {"value": {"tensor": {"dtype": "DT_INT32", "tensorShape": {}, "intVal": [3]}}, "dtype": {"type": "DT_INT32"}}}, {"name": "PartitionedCall/Repeat/ExpandDims", "op": "ExpandDims", "input": ["PartitionedCall/strided_slice", "PartitionedCall/Repeat/ExpandDims/dim"], "attr": {"Tdim": {"type": "DT_INT32"}, "T": {"type": "DT_FLOAT"}}}, {"name": "PartitionedCall/Repeat/Tile/multiples/0", "op": "Const", "attr": {"value": {"tensor": {"dtype": "DT_INT32", "tensorShape": {}, "intVal": [1]}}, "dtype": {"type": "DT_INT32"}}}, {"name": "PartitionedCall/Repeat/Tile/multiples/1", "op": "Const", "attr": {"value": {"tensor": {"dtype": "DT_INT32", "tensorShape": {}, "intVal": [1]}}, "dtype": {"type": "DT_INT32"}}}, {"name": "PartitionedCall/Repeat/Tile/multiples/2", "op": "Const", "attr": {"value": {"tensor": {"dtype": "DT_INT32", "tensorShape": {}, "intVal": [1]}}, "dtype": {"type": "DT_INT32"}}}, {"name": "PartitionedCall/Repeat/repeats", "op": "Const", "attr": {"value": {"tensor": {"dtype": "DT_INT32", "tensorShape": {}, "intVal": [16]}}, "dtype": {"type": "DT_INT32"}}}, {"name": "PartitionedCall/Repeat/Cast", "op": "Cast", "input": ["PartitionedCall/Repeat/repeats"], "attr": {"SrcT": {"type": "DT_INT32"}, "Truncate": {"b": false}, "DstT": {"type": "DT_INT32"}}}, {"name": "PartitionedCall/Repeat/Tile/multiples/4", "op": "Const", "attr": {"value": {"tensor": {"dtype": "DT_INT32", "tensorShape": {}, "intVal": [1]}}, "dtype": {"type": "DT_INT32"}}}, {"name": "PartitionedCall/Repeat/Tile/multiples", "op": "Pack", "input": ["PartitionedCall/Repeat/Tile/multiples/0", "PartitionedCall/Repeat/Tile/multiples/1", "PartitionedCall/Repeat/Tile/multiples/2", "PartitionedCall/Repeat/Cast", "PartitionedCall/Repeat/Tile/multiples/4"], "attr": {"T": {"type": "DT_INT32"}, "axis": {"i": "0"}, "N": {"i": "5"}}}, {"name": "PartitionedCall/Repeat/Tile", "op": "Tile", "input": ["PartitionedCall/Repeat/ExpandDims", "PartitionedCall/Repeat/Tile/multiples"], "attr": {"Tmultiples": {"type": "DT_INT32"}, "T": {"type": "DT_FLOAT"}}}, {"name": "PartitionedCall/Repeat/Shape", "op": "Const", "attr": {"value": {"tensor": {"dtype": "DT_INT32", "tensorShape": {"dim": [{"size": "4"}]}, "tensorContent": "AwAAAAMAAAABAAAAAwAAAA=="}}, "dtype": {"type": "DT_INT32"}}}, {"name": "PartitionedCall/Repeat/strided_slice/stack", "op": "Const", "attr": {"value": {"tensor": {"dtype": "DT_INT32", "tensorShape": {"dim": [{"size": "1"}]}, "intVal": [0]}}, "dtype": {"type": "DT_INT32"}}}, {"name": "PartitionedCall/Repeat/strided_slice/stack_1", "op": "Const", "attr": {"value": {"tensor": {"dtype": "DT_INT32", "tensorShape": {"dim": [{"size": "1"}]}, "intVal": [2]}}, "dtype": {"type": "DT_INT32"}}}, {"name": "PartitionedCall/Repeat/strided_slice/stack_2", "op": "Const", "attr": {"value": {"tensor": {"dtype": "DT_INT32", "tensorShape": {"dim": [{"size": "1"}]}, "intVal": [1]}}, "dtype": {"type": "DT_INT32"}}}, {"name": "PartitionedCall/Repeat/strided_slice", "op": "StridedSlice", "input": ["PartitionedCall/Repeat/Shape", "PartitionedCall/Repeat/strided_slice/stack", "PartitionedCall/Repeat/strided_slice/stack_1", "PartitionedCall/Repeat/strided_slice/stack_2"], "attr": {"T": {"type": "DT_INT32"}, "Index": {"type": "DT_INT32"}, "shrink_axis_mask": {"i": "0"}, "begin_mask": {"i": "1"}, "ellipsis_mask": {"i": "0"}, "new_axis_mask": {"i": "0"}, "end_mask": {"i": "0"}}}, {"name": "PartitionedCall/Repeat/concat/values_1", "op": "Const", "attr": {"value": {"tensor": {"dtype": "DT_INT32", "tensorShape": {"dim": [{"size": "1"}]}, "intVal": [-1]}}, "dtype": {"type": "DT_INT32"}}}, {"name": "PartitionedCall/Repeat/strided_slice_1/stack", "op": "Const", "attr": {"value": {"tensor": {"dtype": "DT_INT32", "tensorShape": {"dim": [{"size": "1"}]}, "intVal": [3]}}, "dtype": {"type": "DT_INT32"}}}, {"name": "PartitionedCall/Repeat/strided_slice_1/stack_1", "op": "Const", "attr": {"value": {"tensor": {"dtype": "DT_INT32", "tensorShape": {"dim": [{"size": "1"}]}, "intVal": [0]}}, "dtype": {"type": "DT_INT32"}}}, {"name": "PartitionedCall/Repeat/strided_slice_1/stack_2", "op": "Const", "attr": {"value": {"tensor": {"dtype": "DT_INT32", "tensorShape": {"dim": [{"size": "1"}]}, "intVal": [1]}}, "dtype": {"type": "DT_INT32"}}}, {"name": "PartitionedCall/Repeat/strided_slice_1", "op": "StridedSlice", "input": ["PartitionedCall/Repeat/Shape", "PartitionedCall/Repeat/strided_slice_1/stack", "PartitionedCall/Repeat/strided_slice_1/stack_1", "PartitionedCall/Repeat/strided_slice_1/stack_2"], "attr": {"T": {"type": "DT_INT32"}, "Index": {"type": "DT_INT32"}, "shrink_axis_mask": {"i": "0"}, "begin_mask": {"i": "0"}, "ellipsis_mask": {"i": "0"}, "new_axis_mask": {"i": "0"}, "end_mask": {"i": "1"}}}, {"name": "PartitionedCall/Repeat/concat/axis", "op": "Const", "attr": {"value": {"tensor": {"dtype": "DT_INT32", "tensorShape": {}, "intVal": [0]}}, "dtype": {"type": "DT_INT32"}}}, {"name": "PartitionedCall/Repeat/concat", "op": "ConcatV2", "input": ["PartitionedCall/Repeat/strided_slice", "PartitionedCall/Repeat/concat/values_1", "PartitionedCall/Repeat/strided_slice_1", "PartitionedCall/Repeat/concat/axis"], "attr": {"Tidx": {"type": "DT_INT32"}, "T": {"type": "DT_INT32"}, "N": {"i": "3"}}}, {"name": "PartitionedCall/Repeat/Reshape", "op": "Reshape", "input": ["PartitionedCall/Repeat/Tile", "PartitionedCall/Repeat/concat"], "attr": {"T": {"type": "DT_FLOAT"}, "Tshape": {"type": "DT_INT32"}}}, {"name": "PartitionedCall/depthwise", "op": "DepthwiseConv2dNative", "input": ["Func/PartitionedCall/input/_0", "PartitionedCall/Repeat/Reshape"], "attr": {"padding": {"s": "U0FNRQ=="}, "dilations": {"list": {"i": ["1", "1", "1", "1"]}}, "T": {"type": "DT_FLOAT"}, "strides": {"list": {"i": ["1", "1", "1", "1"]}}, "data_format": {"s": "TkhXQw=="}}}, {"name": "PartitionedCall/Identity", "op": "Identity", "input": ["PartitionedCall/depthwise"], "attr": {"T": {"type": "DT_FLOAT"}}}, {"name": "Func/PartitionedCall/output/_2", "op": "Identity", "input": ["PartitionedCall/Identity"], "attr": {"T": {"type": "DT_FLOAT"}}}, {"name": "sequential_1/conv2d_2/Conv2D/ReadVariableOp/resource", "op": "Const", "attr": {"value": {"tensor": {"dtype": "DT_FLOAT", "tensorShape": {"dim": [{"size": "1"}, {"size": "1"}, {"size": "48"}, {"size": "128"}]}, "tensorContent": "hjVIPnCZMr72Ij6+kDvxvU7knL01Mxw9e3T2u8aZF76MJCG+npPaPbQok70PXUS+a3kovd/BSbykLce8BBwRvVkCZLyW28w6HfWzPYyZA79g4VY9ZOpiPsIzRb5UR30+gXSjPUdcBT0L3ny/3IZvvdSe9j1XOm09EcDlvqzB+bxg4aK9kXgGvXlYqb1N8Ou8qUvdPO8gST5VMCO+B3eXveI7U77at2M9CS0UPtjTk74OyBm+LUMcPisXpb1EJJK9/WpavpUEQr7mvz2+puwtvRx/jL05XC89pHj7PXmmCb95tsi8v6YHvi8e3b0RqSM+k+6NPtQbqTxdbvA91NzhPSwCXL5jDIg9F+gEvlDPMb3zYiM+UY7wvEQBYT2HILA9IY2/vVe0Lr6Te9o8OGlmvq8wLb5HlC285/drvqcP0TsD2Cw+pQzwPAoZDL1snYC+4unOPYTpwr1O3kK87/DnPCHJ/71b3cu9GXFaPgLAET7r4VS+9GBOPm1Jnj1D2Ba+m4wAPnCKPj6GzxC+cGv3PCY/sj0EhEY+W7UnvWzUwrt5vh69OjYBv027gz1GIO+7f9xovk8+xL3wzLG9xQi/vHr7zj2Lmp4+aQphPKZVDr74vTG+U4u3vZJHnr2YCde9gSdLOjFwB76Du5A9cc03PT4tbb7yXqc9T5JZPcRsNr2nfuG9gwc5vSxqozxs6oG95Q/4vZ6+Fz7c36a6MQ4xPsB0Xr5l2FO+AHWFvmzUGL3NUJs9ba7xuwFZX7697w++5nRUPhkvtj0EOeM9FEzTPQ94Mb1GG6y7ng9fvqhFXDxHgfG9XL5Cvnp/KD15HZk+JQ0XvsVsmTzqxVa9yuH7vfBH/r0fxAM9MvUcvjxsED6YYwo/bsdMvaiF0LrM5E88l2pOPmb+h70T7bK9F+rSvV9mPD0Bzpy8rysLPndnbj2lgze7O9FLPRGH/L11Lbg8lSb2PfBhrr0DjkY9cf+6vD72Vj2q3zC+0k8ZvTBWfrlKgQS9eIjHvTDTTL4hCpC+6ymPPXVDhL0Paa49VP4oPkZknb0xxp29dNfYvUkwPz5Gdp2+2bFAPtA4Qz51OsG6wPItvg/F3jz7w9y9uy9rPpn0OTw2PpS9PHnEvWK0oL3bAWo9mDgqvWgFub305GU+9LFUvexDRT7yBNI9pYdivkqP/7w6lX0+w4NkPCHjHj507Xc+rGF8vRIMN743fIu8kFxQvdYUt751Ip49SWcqPpcQYL26InM+Fgs6vm2KJL6+Jw6+FbTbPTS/v72ywwG+EvxCOs6kz733IA++nYRWvgKXWb1iuwA+EhKDvsZI5r3k5Rw+lEYdPh6tkT3poZa93Glxvljiir24p8o9wkJqvmS8/z10aSk8OC6tPoqUZ7wJ5Ow9LiHSvULyrr1wgiE96X3BvDfXkD7Giw29aqSZvS/vur0tvHi7931GvKn2pjv+mUU+byKKvahiFzyEotE97U9JPuMK9j1Fb8C9TXAOvSY+CTy9jqg9xjdfvan7vT0xJP88sMQ6PrOac72G7xu+qAQ3Pj/s5jwXHAS79oPpPfsWMD73xKm9irGKPAZ8KL5gpY29s1+BvnaURr66AaU88+Xrvfykjz3nfYe9O5oTPsDcpD14bc69DZ/OPUmUmD1BbK29fDYFPtKsa70t4sE93m6AvtwLPj7tXtC9WFI1PvXTPL27k3M+Oe+kPV+EFTxjHtc9dORtuqAM3zy6qw4+d2tRvkmbfr6iMr++3YqaPfNCljuzaoU+fP3bvSndur1MZyo99sdaPkfE172LoSq8mRiZvfTrsz0XomI+FL4XPvX//jxfNeq9gWQjvp7xTDq0H7E9wri3Pjyw1z3fWgY8hSi9u0N2EL4ArL49Z8K7PSicODtG+rQ9KcOXvhvrWT3RJ7Y9A4WSPh1zMj470DO9zwUcvuebdr69aiy+EWizPSOJn75qHMU9hLYuPXK5yjyKoTM+1qSFPLdl/zxy6/Y9eWGTvY/hqr0O/QQ87KCLPouMBr7N9ce94oDKvQAkYb6rHqo7eVCGPqsNU70GBPk9QvuJvw9N6rxymgM+V9U+vgbOHr5/NEM++9drPtQZcD4924A8ebWvvKFQd73Utma+7Ku4vXQ8HrzbgJQ9kDUCPW0fir7t+Fy+FTpGvuxghb6OnJC+Qo9NPuOvM71VglA+blvUvbRIpT565Ka/j2cpvDFnl7ph6dg9F8egPUEFmT0QowK+awkAPodTJj4JsUG+KYZTvnu5frykfaI9Uz6JvtjUxT2PTyk+tGHHvuNsF721c0u9VNg0vh4GMD6yRfG9XcoTPozbXD/x3Qs+Hm+zPWUePL6A0hq9+oN8PbXvkb1zLu69UNuaPPNGBr7ZnDi+gnoaPuJuwL0tVV6+Boe6vekTjD0BGgQ+LIxRvtLaiz5vD52+bEunPb5F+72KIQg+X29XvofnoTwUbDQ+Z8eUvd4iNz5qKcO9K1kLvozYer7pSCA9eoupPXySF7uPtPg9SM17vjQuib6pQGc9u1ZUviq5nL0oh2w9/nnrPcnBkD170os91Ct8vgc8BrxM1Iy+H3oZPuP4DT5c4ji+WENEvja7CT7YwhM+UcWcvkeIkrxCi2Y9QAvuPbT92T0/lwW9clzIvbw9b76pHCG9coxWPvWVibxbH4s9flpcvl54rD135xy+H3UqvT4ARb6CwAM+jpGqPXWZ7L3jyme+l0p6PXnW872UOyi9FyJEvgv/Oj20iew97VysPQ2LBb0NnRC90A4IvieICb1Amh8+aUWOPOVHtj2GDcu9vGIMu6OA3T3fQ+Y9jwt9vu3CNj1jjYA+rSPHPQYiDb73g7g9r8IyPTZUCD51abY9ExKMPplUnD2ROK07zV39O08p3LyINcW9dK4XvsamXjwVLdq9M0X0vZ4BEr78Hqw9wOxmPneY0L2o2ng+BvPMPSCjEz4KgiI+3fSRvTCWf73FQks9g5yNu4OcGj50Koe+s+jmPW8qJD3ko0u9q4xBvpqPOj7XQne9RjIpvbEUcT2ZLle9FKesvQFqez6QmTk+RHolvfoQQT3dPEq96bdHPbF4jr4tgm29YcptvjQFIL0uMQO98hXiPS/iD75HC8k9jIhavQaaQT3bDwq+ZyOUvHrC/j1KihE+qaE4PfpLgb1KSF6+Ei81PuLLuL5HXx0+qh6QPd5oET78nrU++viePjiCQD24s4u+tY/jvXAzxLwHyBM+EcWHPUcDvL08rZQ8a751vWq1Zz4WcRA+aIJrvPxoJD6Kvn29Nz6RvCeWer653XE9CoU3vdLRSb5FRsm9X6oWvgopp72eL/G+aWz7PmHscbyjz6E9Wuf5vYc/Lj6sb9M8knQuPqkIjL6fxVg8WCzrvRahUr34+cY7PDMAvanQgL6R/Bm82VtzvT1xqz0jO6m946I3vnzczL3ASkQ+A55xPCkBuL0/7IM9xWydPn9OTT4v9+y9rIPSvZJRyL2dfoe8QlY8PsRFeb585t09SkFvPtE7EL0+a4c+RAHGuwLCyj3XNcG9c57vvhkGibwliyg+EIJQvWN89z3RY8i9QQmYvZ4ffz4zRos+zakIvpQDCj5g8JO9P3AOvkOfT708xx0+aRSDvla0b75fdVg9vM9lvvI5Sj36oRK9Ay7UvS3+NL31X8w9M+qYPDQvUL7C7ae+mJILPp7eV72mnn69oW39vYAoBz0Oi3W+SmWiPuzhhb4V+b49nld4vLUKfr5ssNm9CnD5vWK3Er4jnFQ99bfZPWMkij1Ad6c9S/zYvHPNDj5W8Lc+U8SvPK+tx74rnTi+jQHoPcSm9DwkIZs+kudEPN8Onr4+h4Q9KWTjvp0Q5zzcj1m+k/Ebvi6a+70FR2w+dvIVvnDcMrwTMxi+yMFfvVMcbz7H2V0+lqZqPV/eMz6IJcy8VjPzvcXj1b0mkxG+v/4FPsRwWD6wgSy+8vnWOj9Xgr6zrFk9kornvZ9XHb5CKU2+rbYZvUrwtD0P1Ly9DKesvWyPmL6fvjI+xr5FvnJ1hT0Gucw9hmNiPbVzkD0nrQS+ywIYPS8uCr3+bLu8B/HfvQdrEz1D0de8kuSXvmgxer39vnI+YYycvBRi9jwodKq9i9aJv/cthD0Mm/k8P1U8viiXCr3VuNK9gfSfvfV7iL7MOCW9sglrvvpY1zyFj5a9oIX+vfouSz41nkI8u2jAvRHYgr1xDKA90r0Svi08Ej49mk++IWfqvKgi6D7H2JC9/NK0Pjvqu74wnZm/6bEqvhGv0r3rOKy+Ic3ePuhw+bwUu6q+uM0lvq9HFL7HP0K+GZFMPb+7sT1tgf49SlufvaHxJL2HP2m+89P7PZl7ND7SAjk+PdVvvgDzwz4PjQG9DFcKvqOWGL9voz09CXJLPtkgCj5jQI69bbvSvjpSN72eWeC8ZDBTvoJdBz5MctA9lbcXvqd/CL1ncoK+TG2mvvJXMT5w6Zu+4PE/PvYxEj4dVaG+3Cy7PqpjLL77jIM9NwFivSEFlb3PM529JZNgPHTNcTwlNP087Zeavj7SeLzGayg9NBuEvmC9OD7F52y+cmYLv7U4sj7DNA+9sBW4vey+Uz1+0wK9zg6lvr7TAr5Qm0K+Iw6JPiN7mb4oRlO+FraGvtJcJ74KcuK9niKfvfTNzT0OL/G9YigqPgEYnr7lelQ949iePeGb7D10R608n/+0vWqu2D1Jqmy9tpsivoHoPD18wzs+8bdJPgP13D2+5ZW+eID6vC1H0D2PKnm+gGW/PEleLz65ULW+iQkJPknu+j39sJS9CbgtPjP2ZL0XnSY+Nm4kvbE4RL6S+0e+4bOsveUYx7wbmmw9xz4gvu4Ayj6MlAe+jsvmPPadtjyDn0A+DSoTPoofCL6mJ+Q+VSjNPfO1JD3LoZm9+wDEPbjWzT4JzEm9CWCVPnEdnDsaWjY+Zfecvqk2v7h5u149H92yPCmYUz2f/Ze8jpa3PFON/Lx4uwS7fvPKveR9AL1bU7U+EaEkPF71Uz4ItrA91O+cvvOqIb5wZ2M9lfoUvq0VzjxQDuI8hwGYu19Wprz5nwU9w4lSPjXjKz4gUOs8/Dt7vsvRnL1V1wc+Xl4qPchHez5gnQ8+R/HBPP6te7w1InK9Z5kDPPhFjb5kpCG+Ne51PZL6qb3s0M09YCx4PXl+ZTv/2rE8rR+uvXm8mD3ya9m9AUbOPBLHmD3DaGI+kUpyPU1Q4D2X+1O908OXvEwzAD1VHpA9LPwIvmiOfT2vMm0+V/sSvo6oYr4qCFi+SefqPCP5Wz3UlcC92W0bvq8Pdb4F2KC9L0+svdDivb3Z0hi9pNEUPgE8Xb2amMK9peWUvTDrpb19cEc+d0W9Pii5fzp2FLQ9P7bovb/G5L0W/IS+ZZgJPyNFWb4j7DQ+Btm/vbJXY7xrIjS++jA4PictML3EMEi9xv6Zvn+TAb71NUG+R6mMvZXLi74dH6g9hRJhvhscSL1UvFS+u5NBvmpkhT2Pvkc+GmavPRyEMr7gvS89jpnHPucKAz6T74C++huEvlH0WL5Hu5W9a9XaPLseyb2Lszy95AZMPbI7cj2ALxg//uXEPV81oT7cQRW+h1hpvjxVcDpD8yE+VFCNvao5tj0qOo+8bQNsvdbhAz7pOxI+jw2qPPhkhT76ecC9RGp+uhX3Tz5+LFY+dgKQvphwvT01BkS8uP31vQR1QT4D/RW+Uvs9PSxO3Lz3wjq9GRPTu7qEDz1kEGq8Vwa+PaEfrr7DCTc9M0r6PJxc2j1XB0q+30A5Phrn6b0nn4U9wkCWvn/uRr6ihuQ9BJSZvVlxUT6Ti4Q9QazUu5BuRr0JcyO9t4pEvQm/TTsOs6Q+qdwEvo7yir25RzY+zzAfPkBz9j0IoIo+R4E1PfAzBb7xqTC+55LhvmswHr3VgJs8GSyovQrCX77/6xE+D1fJPRhXBj6EtV++zU2SPKQjlr1PUVA6x20lPqUmoL2N89w9iarzvVj5gT6OBZc8w5B7Pasd0z15yue+7+6zvq0TTb578zK9iqWkPERLqL0yoxO+VaedPfsenjwq5Nu9cyONvhUWWb66j1k++tq2vYAnib7yxCi+XorcvEgUIz4ZTxC+A9dKPug7Jr4Uu1a+UZLUvOBFkz6OQB89532wvtFGnL2IYZI+4R3ZvSK1AT62AEE+yCIyPtBqwL1AVAe+RAo6v6DOS77iZwC+A5cFvcnfJT4DZqe9lTBJvu/jv7xs4w68Qo4vPcrRkb3iI6i9LQQOvkEwXb6uOBo+5YDYvZKeNr2KcKm7xR1fvgCXZ74Nl4S9Nu1UO/+T2j2YTWA9ZVadvJbvRb0Wrv66ltJHPh6qkLxJhp09zS8nPurVXj3W/Ym9qUiCvRc1Gr6+tee9eOCOPTL39Ty82+e8amUbvuei6jzUw3I+NyELvkb7Gb4J2kK8uOhCvd/wu72xmj8++eS4vcUZOr2yyds9oc2SvfQhhT1IEF6+dOJJPm3KyL0RIQk9CDZVvlFVt7xiej49mTBhvfYbar3ixsE+VQv+vbLRC741MwO8SU4Fvh9cqD12eXK+WdptPS75j71ZJzG+Yd6UvRbwor1tbZM8FFHPvYqGkr3KD1a+WeuNvSU7gT0Yag8+cbEsPt7TPL513lG+GhhgPbKXDT5aAZK92vDsvYoxvb2FaPK8458aPurGwj0gLKK80qmbvWsXFj2C9JG9abcBPhZWdz3AtBi+FW0ZPjKRKj0rTry9FlyhvS0ymb14mfi9QuKyvTPkPr4cP+Y8d0gOPn6Ti7xi54i+zQUoPZfvdj4p12e+YyQYvkqUnb1gn5q8i6YxPvLyHD1nWBW+nywjvj6YW7wW4rw9HMs8Pcbz2r0rNZI9SHDWPSBS+DtlPQg+C56GPdTqwb74a1498uG8vVo5U74x/yk+HHMiPpnUOb7SEyo+q94vPiMmI75DfBg9VmVCPiFOyr1nkgE+C5eDvu7TgL5UkgY+5XaSveRenLwlnQw9zg6MvK6tjTxJ3BO+kaf3PPVVWz4p7AM+ZtpJvR1mab5Azou9BeIevSWrHbzXiX48Y3uxvQLUEb4VnmE+ZROlvSHYFD482yw+CgTRPZpbHL5O5wY++JKkPXo3hb4pCjO8TMSvPWs/6r01LNI9CWalPP0l2Twkg9q9+36OvQ1dHzqwwkW+gj8yPXrjTD3EtZi89a3EPSnGk75ykg0+oPuBver3fzzpsvq7AUl9vhLWQL4uW4c9ZFVzvZ4lE752Kku93740vYYErz0y0lu+8rAhvT8kBD6HEgO8a6QQPhesoL1HmpA86HU2vgN6uL1yU6i9HNwdvjp8Xb0i1jS+TeK8PQQyJD45lcA7Sue0PKaGEz7G1CG+MnyuvaJuIL7LNl49xPZzPtzWLj1CtlK+D3OEvkZe5b3FbtA9bZYDPfQ98r01+F+9iu16vOsOob5Zr208wnAIvbmLUz65sEe+nudovA5ILL6vjQ0+ns3yPTkZwj3/uZc9YxYjPBawY77t/Dg9AFIuPuKrmj2wATy+mVM4Pb5Urb0pqr89RonOPT9kWLyVgma+Ayo7PmDM5z2S8yg9kgHwu6bKQz4JIxq+V7wOPsMjyrpelqK8fbhGPtkO2j1EWuq9pf24PgX9YL0gBzG7sM4GvSX/ATz7i4c+UE9IvTzVnTnEzCC9UhigPhwas7s66Lo9cETLPGj1Az5gzjc+W8JoPl2zkb0o/sS98zoAPsHSUr3cZDO9uOAAPtUDnD52dvw8HGL4O1R67r1+2cg9dWCLvHuJMj0m3HU+7gIOvX1heL3JqkE8+DSEu6Znoj6fIKi9FRGEPhSocT7qAv09bskqvp9xu70hhVK7SuYtPl6Xvz5attK8GcQyPtX7Or4TCq09Ow2CPsd2u73Uicu80fbYPUbExj1BcDE8mOc1vsukCj74Kps9XvyXPFYyA70FiUA+IBjSvNivgT3sa2E9uJJDvpwJlzyYQVq+wsRovStWgT7EJR2+PLEJPjBsi7sZ8ya+7T7hvYvh5b2S+f29ElcrPX4uO77Cvwo+g7HxPZzF/71aO+G8g9Z+PcizQL2f0Co+NhdRvo0XFTwDSzg+odQMvtSLlL0xKRK+XRt+Pnr8Kz01Jy4+eWNcPcWkHL0Y5D2+17CFvllWb7sgmmq+IErzvAsR0rz+HOS87Zy0vT/VJr7aglW9OUsmva6zML1dPQI+6BdXPefADb1K5Aq+7cIGPDNpF75KBN09dmMPvknDuL1uhyc9HiyuvTpnXL6aGt48mHeEvK0pzrx6rvI9ad8evOF3q72LUE89OaC8vWHXQr6NBoC+7jddvOtvXb6R5Xy9hfBwvUJ/pj2Ul3c+mF73PeaVRj5Y/1i+R+dmPUk5G74FrTK9pC+ovamEir3o7wC6f6OCvQ22a74G+Cw9aXYxvULsOr0zHsc8P78RvrCRVL4/2dG9oDwfvVEhWD2YW/m9gfD7vQPCZr5eyqW93zWKvCzEebyKYgo+8Xn+vd6EHr2wLPO9mCwAvivag70VjGU9+JetvcXeIzwZhDU9Q2SavV7+pT1oPRy+lCc9vs6Z0r1/0Si+iR6SvUum673CbHe9+qcJvku56T2E4fg8DjosPbtQPryajWM9Y3nGvbksoL7/c1C8nNl2vVBZiz0SUee9Q94avnBBIj3vqnk8XtQXPtn0DL04CWY7+l3IPY+NEb5wbxu+Ns9MOzjB8r3gSli8pPmlPcApUL6grAO+C3j4PZgSX74LL2y84fgvvYNDFr5E8vC9XK+EvWrpKb0H802+fl3APUv5s728fD2+JbBtPZeeab7v1rW9tSYwPaBvKb3I70C+SvwxvLRkpr2LoNS9gmQ6vJLT6DsLj5m+nsrHvYuuH76J7Fu+qntuPf0PBL4I0R+9McMNvvBVdj7MmRY6ClZ/vh4bpr081eS8kEyfPXffVz5Go6C98DSkvdemuz1iIYU+BWY+PtibKbw3Y0c+OI+zvaLEhLsoFmW+md7wPGHZKD2brby+ZUvMPABds72zCS8+khuMPXKL772M5OC9eBmNPmdXBb6CW42+GkYEvim9o721kHg+qn+Rvv408T2yr0o8jSQrvn5tTD5pPbU97wHCO7mBsD3XxVe+gUb7vcUU+L3nVEu++D87PjnRWL5fKzM+e28cPvOhXb2F3Uy+Z82bvfjfyDyHbWC9iYOaPNM0772hHTg+cUOTPibnb75dVBw+N6jDPSv0eT79T6A6/lzAPRlWB70Rf389nv1vPrw/8r3cjYo+lUD5PGkVHz2GODe+g26SvNGslj5HR7+7tuEKveUbBr6bzTs+V0HdvLHfIL6DdBS9hECwvIh4Nz6onr69sQy7O5vb7L0GX6K9sezivYbPaD4UyYW9+BYXvK2CD74glD48VDjMPeHcVr5HYws9ZfHjvUb69b1yK2o91R+bPCKukD1zkxa9Oi8CvmiYnj7ag7o9NCuavSdk4D3IUYc6keEPvoRRq73MIJU56j7wvfmwMr2LMgU9MNvJPWoZMz0OZVi+YGOevPKZnz2m8iQ8+OLMvONrAb6JymQ8CqJFvm0QRT0tSIC3VjhTPlLSELzGI2q7KeRzPsVlQj4gzpW9/2uYug0nJb6wZcK+Ff6NPs+npz3AT/K8SKM3vntYRT49ori+r6BWPvZYHL0yjIO+74mIPnhkS70y2KW9//dKPvQo371MQrk9G4yUvijZbryVzE4+eTJ9PvKBj7uUEje+hFYAPvBGkr5pzGq9c68LO1cOI75xiuy9OZkbPggQez27Tj693TYEu/NA5L00+1o943oMvtEKSD2xmko+f/1hvdKlE77E4Y++Hx2RPtO7Or3Y3KI+9FUTvU3em7wMi/C9CSRbPmHdqD5Od8y9ciEaPo3eKz6x6J+9IwW9Phjp+j0dWbi9RMK3Pti9eD751wo8HbeHPjThZL22OHI+3NZfPnHJFb7ZGUu9II2MvdAmBj1tUI+9pQquPbG+bT4qjBO9SF2NPFbu4b0Aw3y9toeYPRMtAz6xG2c87qvSvoz/gDzvWII+o3RCvmNFaj4VRM29KWYzvqEbIr4U0tm9nn5HPWdxlb52k/m9hdWGPaOtDb1bpuE+F/3SPfLvzL3w/bE96frmvaHe4z3VnTC8IZw0vjIuDz4ymlU9r4/kPD8qib0Lzzs+iRkAPgDrLz6EhRo9+ss9Pn0vnz7YE4q9IPP4vTTOOz4GEK08aC/OPSn8iT6x+089Hx6Yvc4yj76X8rs+eHURProS6D0atAe9ffQ1PvBELDy4xG2+hHxxvurZzb5Xkw08inzkveLugL21whe+YOG7PESopz31QP26k+VYPCMJ0LyagiG9vvRIvhqenz3HHg2+HLGnPckPJz0vogy+I9hbvsJFYL14H1U8C2RCuiZpVj3OuFI9gcyxvQciPj7QT0q9kukivv5ohb4kS5W7gt8qPhlJjj1bCoE+X7MsvksG5TzU3Zi9WXkYvfm5X71Ouom+/5uzvcUZXDzecUe+plAXPWE1tzrOw2U8sOIcPd3bPz7jOqE9mDUEvohIUzrmheC9vs7YPZsxgDz+iuU81IOePdNMNL6VM+693HHFPIsDhL1BM/C8l/eSPh7fs739noG96OxTvdeeeT5m/fG9OORPPbj3rr3QqqS8AOpTvlYeo7xVMpW8jv8YPoVH+b23ESo9Um6XvcFoKD5Kz7Q90tFNPgs1iL4OdT6+89tIvoAgJL7YaSc+yTvGPT+WI76X+mk8yIPuPb9tRz4Zy8e9dTGmvDpKKz7qgfu9wpkcvXrWN7yi7Ea+MG52PcNwi70JUAI+muNxvTcqdr7Xw7S91+zMvUBJGT02v9O9x+fwPbui6b1yb1y+yocCPqjBVz4DqRu9+FCdPXrtIT7OQPs9zu2Yu+yi/r2iKRy+JX4aPgmpFD3jA/S9OApsvXiE6r2hWQy+JguJvZcsKjyuSEk9XkVDvk+FYL58yDQ+AyldvPIJFz4MV6876Kb9u9CUZz42w1y+GXK1PTaPXj5Tb9U9CZXBvEKZI75y7Wo+KJwXvXBp+D2KOAE+k5CsPo5dvDxbZJ++a3HQPEp8Y7u2Ha+9nY+IO6YClL5pzOC9oV4qPvNsoL7npJE8VyfCvqsT/72Pt7c+bKWUvYA38LxJE7M88MFOPmjVXL5EXOQ9UcNZPigNkL57gnW+aIYGP4rRD75pSYq98VbxvdMcKj4AYWY9XyrBPbz5Vr46EMm+uKCjvQNhg70MGmq9PXcBPQTeN73cKHa8maOxvL92/L3OWAe+gXaPPe3Njb76IKq+vCGtPnCgpjyHcDq+UiPEPUPm9T2vlww/i+8dvjAcJLx7oqy+VPqTvdf6LT5DLrC+ZOegvsYhi7673/Q+fxpFvr13LL4gTry+JrXNPsrul70lhq2+a8tSPjLuWj4U2Aa+//QNPSK+2bldB6s92anJvKe3Y76N5+u9GZxrPVo3oj6y45i+6p4vvTlZir2YNgc+XoKTPhCMOz6UhJ49FtadvrnfLz6IDro8lT96vRNwET6PS3++S1yIPXTYkD74GYU+dtKiPi4oaT4Nph498eHOPXB2sb2lgXG8eVlWvuZBFruqZ4a8ZH2ZvOHnJL0dDfA+Ziu5vhruxD4xX++8/GyPPuO/8rxdcKu7BIqdvf++4bxaGNy9WRC4vmbiwz3EsW69ms2MPUOAT71e81G8JL2su+p5K76pPBc9hie5PUwrvb0G65O+nsmOvjkjob1EorU9zBuxPcgRcDqX6sK9duS8vhwTij1qXp897hFgPc7Brr3TFAM+jkBGvo/DfD1efgY+e5gLPRffZr6AJmy+I2UFvgm+Wr7+KUY+TBaHPKYFdL2OZjk+/IYBPnriH70KsS++VV3YPgJc4bz5DFG9QdX1vEeGFL5tuqO+YRP5PUO2qb58JD29HgD0PV3aYT7iADq9GED6PZ0rmz3353a+sV6Qu+WAez7DH0K+hVgVvpkYTjxfyHO+zRW1vGZuez4AVb48eGM/vesjjL6glwG+PHLTvS+IA74jKWe+/ykLvmepJT4BoZu+J1XzvQiTvr51HO8+4Pl0PmrVHD5aDme9aMMCPXC9B77Htvq80SA4vnGaHT5O+L0+QvhyvtujCj5cuHa+qe8/PThnxz6CbGG+uM6svZIDtD6zJZq90d2Vvo4dyT3iTL0+OWFXvr5udb6Ktpq8IL8GvB9IlD3LSgS+D4HuPdGAqT2ZiPe7I2fRPcJ7+b33Cgg+by68vHt7vD2uNmO+rhPPPXw2ij5HZxe9lQy1vqgVmL7mX4c91NCkPS5bcz7J4wU+TTD9vLaxFTyoT228llZ1vptZST6iV6i6dd2BvrNqKL5ZE0A9bQ6FPeuR8zzO9RE+9dpWPhAnJL1LJik+9kgPvqmUxb1AZZ6+GilYvoxt1L0VjPK8+YREvj+jJL2NfRy9hvTdvfT+JL48S4y8wUQJvvJRiD5LcPq8Zi1lPfaGbD2LpIA8tuu4PRImPL3abjI9mi3sPQAFCDyKL1o9cWFLPqMlIzyzffy9LvB5vkiA1j1LrsA7ddeyva5PJL6qdO69RHG5vYY/hL3JwKO9o1bivEF5+j2/b/M9YbmNPRvErr38Gjq9DLAyve/uqrznv5s9e/9APuk5Gr62cmO+XQ8uPq992T1oXZU9wAAkPl2VIL50/Q2+vnPdvfmx5L3Xcts8NsoyvsZ4A75dg8E9afwLvrp3Hr6W4Hw8gUM5PaX1Nb29TCy+IYRdvZZkt70/htO9TCuaPZwPy7sheIK+JeaePfS1HL3JQOc9QgekOoWBer2Vfc+9oiA2Po/uFT2D5Vq+cl4IvdmBNT0AsZq7SAsHPQBFqzx5EzW9GW4cPhiwSL4As36+0CMZvjaccz1qDUO91iJ3vgwuVT4vLgK+SzgruhnQNj2sUw++02zJPRY1sL0xBgO9T4LjPQ/Ft71Lixc+Zx2KPhCZ4r33d268hvM+vo1web5g1VW+Mag2voGtLDxGAoW9vPfLPRBKKL0cFh89zseNvo1R8b2ycik9DmGCPOqbcL2zgJA9kNylPvljtz2HhBw9k8fhPTG9H73Fbmk9JB+WO6MeVb4cLLG8wWvUPdjqlz4CTHo9uSCkPls5CD74rwI+eP+GPi42572p54y8Wj9Jvg/EF76xYkK8khbQvjQNzD1CLoO+jSF8O16n7jt6frA9+acYvU27HT3XbOU9Cdf1PaB+Mb4YfZO81vrOPRlGSDw5eYs+ThEbPnoWML36AeW9aJOhPrvDxL3WJSg+CCzrvgxBQj5VJQ898xQHvugtXb7JOxc+0kfTPQoyUr3UpOY9fZjGPYF39L22wny+d88ovrmvOb1Q9Ri+NlpKvsoAwb0DuSs9t7sqPvdUg7skYEw+287zvEw8YL4a9PC9scOnufFo2z6pIj49zc9GvaRbwj4kk+c9Q3YGvkaMFz1Vy0C+NVZJPku5Gz2bOoM+OjBQPSeUCL6b2o++O+YivsdKOr6jl0u9CTK1vVKnmz7H8tI9CnYTPjUu9z0qFKK+fx74vCr9a7p/h+c9tjK3PdD4uz0lttS8YKMsPHJt3r3HaUC9M8g0vl1caj5yy7G9ao3Uvt4loj64gm0+Ynr5vA+Thr7/AQs+Nw4MvlaWAL6BCSq+GWuwvsO/zj0hbwe7ln+KPQriRL7f8cC+Yc2uvInmmr6S2HI+MnJ7vblDUr7bS+q9VSw/PtAlVD6qiXc+zBQHPr0olj1+waS+INEcPLTceD1o/iI9i+MIPuc2wr0gytq9ao9PvrDqCb48DBG+44S+PaILmL5QPRI+6gWMPX1WUb5IT3e9tpzfvWs9576K+wy+PYuZPgLwgj4MQCC94CUKPu8HMzoZNxk+rRPtPTlKMb3QFiC+wrfMvZpTu7ujcxu+dpwhvrWC3b06+KQ9LtAsPtFpgz0Et0m+5ssqvqNNlT5y0mA9uB5WPCKJgD4q7pU9ql6NPqcyLT7I8qY+SpUZvvp9nL0ixHe9m8S4PTh71DyH0ze+DmPEPpcMzT4XN0S+D7QrvgXLs73MSvQ99fbgPZ8xnT25inC9MZzSveaC2r4hJFI+HYoRPv5czbvbr/O9dwgKPa+J6T1jGV09mstTPqSFob3QVpu+3Q9uvTeD5j3IMLK9t/L9PdEX57y6HBM+oLgtvGcGMz2brVk8A+lzvs+sbT535Wa8J8cpPp5pfL57o5G+UAifviFJvr4x9yE+AHxuPqZ/Rb53Xh++eHUIPhj0/j1k82g9GGCKvU9+CD4Bf6Y+mFT/PG1kkD5efNY6Y/NMvmC0czxjany+5JcVPtq4D721WVy+1yLgvOYTebutoJg+M3goPAZjMjxAL729aBWgPUy/8L0CogQ+6E7vvmHmQD4UmFM+EX4HP87Fwj4AJui9ae7QPdPTb75mzoW8Q4g4vPQ6Nr7q8gu9UPptPR+bp71mZTE9P/2hO/bFbb74v0q9GBaSPRMWoL4oRki9GW40vo+lvL3JvqU92cyEPSFH37xx8gS+T9paPMO0Prx48a67e6ZGvjikHz6vtIG9gWwUvlFTg76CIpo8Wvs4vabPgL7CkdG9tbLDPCOadbzvJjm+GZiVvRKGEr6wQjC+2dAXvcEiTr4yyce8sGvdvR0xWb72Tie9MXvGPL7blr3DHCY+v5wHPTuENr1V/n09gFiAPGikHzwj9xk96a0Nvscmpb0lnW69waEevl3ijj2T+Si72mKCPQuAUb59wLK8i3q0vYjXI74LgIk8W/+cPMXUBL2lDHi9Xd+CvqmJ2D1vmo87+JilvBfyBbzUpeU77SKpvSA0iL7mDYq9Rzo7PSg/97xokCW+zd6gvtI7FL0nZam9GJExvuHJHb5GUg08C/ZrvTApST0c3iy+6YH7vWZn071LHzm+rRJJvuGWUj1Y0de+wO9HPqIvYbze0I+9ScbmveEV7z213Qe+WXdwvmJ4oT3+Z0Y9QHZpvq7zKLxkX7i9tV8MvgKDbD3MCje9bfj5PNfgmj3rbi++cqKsvVotJr6YKTS+65MkvrKFZ73zqbU8qe/8ve8PmL09GGg9FhwtPRNVQjtjPJG9w1x4vsQLH74Tcqy9OTSGPE39E72NhAI+QthPvLs/hj7Afq+9ASZqvjA1T7qPxFQ7vN+oPYVBOL6qnhI+qEG6vDhHxj3Tazu+CLpSvRg2Oj1KHcs9TGVXPf0tRT4u7vC9Uy71PY5AhD2/QKU+dAdUvlgSPj1TqE0+kI52PqFBFj20tww+bQVwvZ/pJD0lcm09EaDBvdNywzsPqsU8Bzd0PdXeSr1sxe89ltxjPvwJpD3cala8oLA/vRfLgL2HPvw84eeGu3E/sDwKeum9wIgbPhpeFr7qlku+Ntc6PegyPj7vMTI+HvM6PkpZVrwj4T0+nGglPWohGz2eiXY856X2PS9cuj0XP1o+BpBjvmDGS71eNbO+zW80PPJPaj2/7nm+web+vTwhlb1Ky4G97NgrvtiYw7z5aiA+M3B2PqTmCT4qnGA9zcQJviC8jD5gFRw8YDSsPKKYyr3B5+28975yvju6yLxQXmW+5k85Pc+4Az4QVEA97Jlevnb45r7pwWS+MsVmPfRiMz3UTBC+fTvlvDA+VL4jKwg+4bo2PheaYj5c2qg9xKQdvrbTSr6kFwG9dOg+vgCEhDxlgx6+Ivo5vt6kYT6b4TW9wfu1PTDbUL7Qn5O9l6fNvZ/zwruqNUC+EKNYvdyHIryrYYq9lKKXPR0Ix73JlKa807dmPiC1lL36+409hrx1PfSmIT41ksw9zgmVPSQ/RD2RpZA+D5CJPpoIuLweXQ++Dl35PRhWIb08M5G+JA+LvnVyOr7Y4z6+DVXWvYBAij317J29n4yKPbDoBb1d4ka+NMQgvkm5YT55og68IgylPcmfg76BowE+PHItvkNVpL1GXkK97sAdvOxsa7yzut09ry+5PnHrpj3//nG9QZ+IPlHRQ754NNw9sy8kPqY2Pj5P4Zg7xoNXPj4tkD5Wxw+9n8MgPovAqb1zkVs9JNnlvG1CQz0wQk6+z99OPCKKEj7zyN+9TeazPNj7Ar5CF969PKAsvh2Phr4oLSi9iybnPEgxUL7+oZy+6/Otu9RmGD1UzI88BslCPNBXDr1U4i88kuWHPDnhwbyEb7W9WalCvo+JgD47RhI9CUhIPmxQIz7GkoI+pq5VPiAjBT6Vkqy9OgmBvv9qkL2UDEy+l/5RvltotL1QRGk+dGEjvtBvmD4V2VK+AvZOvnIVPb5XMYw+2po7PjMolb075MK9G4XXPCnpMD0Sro0+ILZGvsbGB70G1gA+CiOJvOphsD4Kzyq+Y7KEPiUxXbz+iuw9+xmCvVmrHb7SxYs9MPadPT7rcL752Cq8GvdkPCVPQL4X/bK+FMYiPvaUzD0I7Oq9b5sAvtRxu71PujK+tkVOPub/aD6CNly96pxNvAsws7xH9wg+K1ytvDtJN7xvp5g+1GypPR9hLL411Gq9ifSdPDXXHr6SlDI9eG5nvkhQp70lh9Q9fL1KPeqzT77fHRY9zY6APMVHb72Yjf69+T1xvkuM/D3Cua28mixGvlI59b3jI2C9UlObPT3zAT3V/rM9S61ivf/tAD1ZuuW8Q06LvGEBor3nipS9PNGsPNm3Ar7OG0q9ECo8vvhZIDzhW0k9pAsFviNoyr2MkJi9j3gGvTIq8b2ufoG8p7BSPkQJIb6frx69TAn6vVJU2j3DgHI62MLCPRA9uj3oJpW9onzmvV7Jc737jRW98109PAnUt7yxudi9S8cdvn6tZbsn/SW+wiHovRR/Ir7Nrki+FaMVPhql4L11XuK9YdMhvt6ywz29Auk73qbPPbVUN74SYKm+BB4zvhOLX77zXWa+9e+nvRyQR770OvI9yj0hvomPJ77xJaS9B9jZvUWsS73p+TG+rntnPehoRb4f5LG+bV1WvbWD3bz6gMq9S2hyvfCXZr77MS2+MoNsPcHsHrwyjwA+Q0H9vrhgDD6on3K+6602PKKVXL5V51M+g4Tpve4OYL2pwds8v6NMvXIhjb7eCCi+QAXbPZS6gj2iXgY+WZREvgiVFTyJJj+9xnSzvaAH8j33/D+9oP/RvVxfz7yH8oW9AlXnPbGCAL7DZae9l+xFvR6si72KvMO9gmLCvVCvD75fvaG9hgwgPiQW/L38zk+77hcEPntgGj4sUjA+FZ+vvfZWk774D4k97JAFPut4bD2enhG99m1aPkMbWT40VYa916MFvlrbBz6Xszm9feetvfAKtr2wBJa83u/8vWawp721KEW+/qM7PgpTM71Axrk+RMQ3PqraCrzhf+M92JssPuZHbjwjoQG+3nllPV2rPb3JT4a9Q7p/PvZLgT3QoT09XHK7PB5PRr7pqku+wHcFvrkfjz0LAjS+6Z2avldylLy0UHw9Jk4kvjvHobsdpU8+KDaZu2x1Sb7/DaM9a7bYPNVcNj69xDu+xJtePiewpz2pRsw9170uPeQ9wTqfcZe+QO9ou77eHjw033y+ixGTvXF0gT4JtV6+jPNovjr6Qr4bzpw+5R/Bvo8Xjz0VD46+mxCPPpGgfj6KkZa+KLWkvZ9cb75x1sK+MuRrvjkgRL750+k7ydpcvpIY3z1GQd49k17CvHj8TT7v5wq+3jLCvP3G0L2fjCC+PmpSPmGwzD4bIBm+1X9PPmLbTD4+0f895iJSO6ahNj35D4+9riLCvqnejD2+kOQ9gNADPnDcBr7tBNQ9vH3NPCYasL7oQkY91ztuPc+WCL0YlpG9GZ1mvbp/RT5J0Ii+BFuzvl3PxT0Zlu07Q77OPolelb0peVS7JfUovUR07D2eXJs9c2shvOlnAryJVWu+Qn77vSDnEj4RrPe8RYAhvvtWVz4DDsO+k+N1vhgy372IcLy8eFEFPkBWtT0Xao++7Rt/Ph9ad75Nmza9QnmgvoJfoL7Rc3A9Qu53PuMe3z03eIe+8F2QvqjdWb69uRk+S5rQPc9MBD4jFpW9bzJzvtSRcD3OeW86F3gRPZcxvL3ians91EUzPfhegb4HirE9BHrGvR17Mz6RqBu+AF+CPd6+rr0aKZo9eMhEPaTudL7YfgU+iZsxvucTlj49RjM7drIgvrIqhr1BxoG+fp+dPtSSjj1jBne+4wozPg51pj0p8/K9l9TFvY02eL3pHnm+y9o0vX6t3b4H0r08IpUVvUa1175qYR29hJIsvtNnWz6kkJi+qvx5PlvStr2FTV6+H4XHPZfyMD5Nffk87OEmvuqcjT1/nxM+yHs1vM8TZz5pGBm+6+ipvQmBAz1XQ1q+grI9vZjJQL53jxi6YKkIveS+ML1hk4k+ge1JPqAc4TxgEYe+mS9TvZarOj7pJ+s9ueaDvU+EOj5txtQ9V9dgvjbhlrwl54Q+nyxDPq+v571/6cE9tHOHPmtEHb63MkO9sGksvi5WH75Gk7A9b4kEPurl4L4jFUq9SQfOurBajL4ufJ0+1ByxvjBd1LxwO44+RTZXPd/1Uz7B6fa9rX5AvsjfxL63NSY9c4NUvR6XBb1ZbLm8wuVPPuFxfT2wJH07i50cPPC7vr0KkMS9HGomvevNp71t6pW87E2MvdOZ7b2378295tBQvvnIBz75HdE7bvEVvWUY9j3e8Mq9n9wDvptecr2dziG8ViFAvrwvsD1W68s801flvHjsRb5UOaC8NVrQPQLNYr5RZbk8WJhDvjCuHD7ktV2+6GFlvQF5Az4tZ9I8DtK/vYKUOb7h+i2+bug3vi8j+r2d3Mg86w4TviwCrj1pnw+9xbIgPRkI0r2/TO29W052vnRolz3EaJk9OYIPvThz5732OSQ+DxHsvRjin7whGIC+5C4bvd4Z8b3XzCs9LtVuPTqpmL0cAyU+3IzdvObhJL0TVHK+BsfFu/vZLL1yQpq+S1oEPdXWAz1QrQM+fmmyPdR7Mj0t6W+9p5UQPqnr2jzG6Xk9oRn+PX5WBL709iO9sUABvpklE75EKBc9XSBRPjV7p7xjWpG8ResTPl4ifb5FeGm+Ay+lvXnQ8Tz/tgY+cvJ4vezRgL1N7YK9+0sivbBIuzxLroS9TCfyO22BDT3+MUq+2i50PVKWlby/fNa8a/8IPf33dLvTQlI8isFovDsnlj0wmRU+Ni8EPkpWCL5STvo923tzvTmPfL1m68U9BQ8vvtD59r37kk4+++6CvTmeb73OVxG+evxWPdmKtr36vCs9+PoAvo4qgD7dglW9SOY3PhKJYj4YPAS+RDA5vmkHwL5eHhk9RZF/vna3Bj4tsqa9Ai95PmhzUT1xRoO+xEuFvVPkHL1G+SA+LLbwvZ3FIb5ULpI+Z20IvgkLrr4aBy6990IKvkOJBTzI3GM+1T0pvr4bHT0X3YI+nPs7vYvXr71f48I98sEAvtuDTz5dmHM9P4RxvXOj2D2PF/k9kJPePXWxOL7XpAe9+e2CvZmdhD3bW4W9amUaPat51r1m+Ic8QaQEPTb8Eb5+v4c+56lbPmKsLL5jms+8GHkaPmRlAj5T8yG+orqPPg4Zjby1Bok+F3tmPWQz1b1vjDC+su1wvgaJbT1ARYi++j1BPtSxYTwyqC4901kRv+bUgbzTfzE+M8P9vVEzLL5nkLC+9U5EvmPlkj1l7is9Zg7du2m2xb0N5J2+2NHcvufswz3H3iC8ISKaPd1vsr1fbpM9OeqAvpSVqT0VC7e9w+DTvHJXQjxCaTc+gb1pvrh4bj0ydKq9IiPrPaUyrT0apZ+9vicaPsK+TT1uoWE82wqZvtjiej7rWJ099pzaPTjcrzyyOjs91NSmu5ppyL3CMhC+GEubvfN8wz0gEoQ3oYpKvhLzvD3dJgS9FzW1vsmDHz4NZzQ+KPhvPcLWpj07+Bw9qp9Evv0BvLynAQA9N8B0vjzgkb74hKc9izgQvPBZDz4GMis9ofIovrpx7b1iuQC+WSmUvis2Jb4078+9oN2jPmdI4T34pio+xtjAu4s7sT0UdQa9XY3KvaUzfL7uI+g844wGPuIfwbz/E7A9AWWnvlIBcr6cgCg+TiyfPYKXwL5vrGC8YwYmvdPfQD18rY49+1AcPpNJub62B9W8LKTEPc7W0b0xaK+9+NgxPoplIT5/kaW+aByZPVjotDzf/FE+ii4ovBilab4GUAu+/bKrOzgQ9Dyq/tq9rR8qPh4TVL3EkWy+IRvgPjfY0r04pEe+HEayPRxh/708pV6+PbDZvRWUKz4qyZu+OZumvSnOAT7BR1q+yQQmvqULEL4V+uG9zVkkPqFhybxRJRe+fR+sPX0W175sEyE+H3kFPK+eDj4ylxI+aWo5vopVib0GgLa98JtiPjqNTT2S3x++vD2GvvONij6yX7e+KUpjvjuivD1gsU2+rkIavZgyf70WJIU+EGmLPtTjmD03bYO+BO6iPaswND38xRA+0gmEPR8/BT7RwD6+SC8aviO/0byGh8u94fI3PX5nhT0Vvpa9m3vPvUdAtj7js509HLa4vr4Fj705sr+++ldyvZV1h7x300C92bMnPoLJj73qA5c+hkmPvjE5nD4sf4A++aIRvvC5gj7jsjW+mXFvvhakFL58qZy9GsTxPQeNyzygSn0+Nn7uPRiFBD5mhoI7PUcbPXxRPrxWk789qcuvvdaWTTu7gqY972AYPhs+nz06s1w+p5AXPfjdgr10NAY9q5QgPl8Sfj7QDS09sRmFPafW1j0BaU68R7tfPl2NhjuVjJy8w9Q5PgXMar3BUNK9Q/uyPSL4973m+Sc9UO9XvfFNJz6Blpk9H7fgPUQzKD1fGja9Kb1CPMkvAj53jF4+Md/+PYp3ST6gxJo+DWnJvEF/qrzVlsI9vnk4PHj1DTsNIuc9sNwvPUyKvT2MeqK79oCBvmRpBz6jw/i8TrKuPp8cr7z7iNa8o3cEvplBmr1xZJs9ZO8RvOzTqz1MWs09V0dXvsBvQz5d6Uy9krkivtJqazrLKnu9Oqo1vWxmmb3+AYg9I3EUPo/F0b3GszC+xccGPmeoMrxH1AG+ZLQ3PocI77s+UqO9oL0GvA731b1ILmY+skUXvlr9b72r1WA8z7V4vfJLK73E+1K9VR2ovdx5lz3CZRW8vnyyu2H51Tz2Nam9h7ttvpjJHb4KOgQ+aed4vSYg1T0BV3W9uC0CPRSOV7wO7cU9Nu+fu3ebaz17Vem99juLPqbTIr6s4ws+K4zhO8ckWry1QI8+cBrzPc7SJb6B2RI9l1uHvSDP+r20uZ29ajRsvpf7Dj1azRe8cqdCvAbKOT7Z/ou9g6mcvllxFj1fY6Y7+LZRvkRIET5ZeZW9JbKpvf8NYb4C9gQ+zTCtvlrqQD4FSQq/DxRMvp5+Fz0q+IA+W5FBvmVHQT1vd4++kkCcPXZTQDzLspk+KyI7PqJErb41xIA+lEEYvXWsB72NdQS+7wKMvSQrkb3V0iI+HIYyvkCpWb5uKvQ82lmevSXuILvh5UG+jE5dvv2a2LtsOyg+5756vg0n0L78YGo9nZLBPYzxUDwjSGO+5rRovipoPj4L1Yg+A5NRPW53TrxOG7C5nTYqPq3Myjt0xy8+u8orPix+eT6ycR490rl1Pncdxj5Qe4k+ZtbBvlPUYj7Za2y94OIlPu7iuj1kp0G+gBrMPbuCxL2tJai++EylvoSEBb7MFoc+YhapvnLJIz4zcCW+6Ydwvr21RD6DL+M9ybIVvqP4Lb5u8g8+kHidvvQ3db5JYSg+zLitPJixAj1t0hW+tuEZv95uQ75GuI++ZVRqPh3YKz6yRmo8pbcOPr+h/r2L1Me9413iO9B8O76uUaO9sez9vIxn0j1oyT6+KfkCPm2IOb6YOIq+oDC3PjY3pT7q2RG+esafvoY4Jb54uwo+puVcvuXUYb31Kue9aEJTO2mNWD0vfN68EVahvk7bOT6XmEW+33ucvcCJWL7F5dw94X+9vTQzqj2RNV88iPGUvqgftL39XPq9NpIHviGg9b2Ap6K9aehavjYS6T49RNQ8+b/sPRU2ir7wzQE+C3htPu4XFj1cb/m9Kn3PvTCYpb6Mpio+AfCrvVa6PT5B7SE8ok9gvMmpo719E5w+Zwg1vir7nr7LTze+lfg8vjbEn7zTSFw+GfI0PhtCjL1y1Oy9EG+PPkQoej3SX8E9NbHvvVpjgT7ftx09lsu6PrE9oz7XxmU8ZejfPrnxtj4HuKs+ymjePWsArb5TyPk8d2mEPZZuFz5v+gk+m53dPQX+C75TS2i9ZMCQPmBz9TxdXzy9TFwYPkh6pz0S5Hi9DZlNPmlV+T5RJas95B2kvJiwqj6bQKm+i1tmvto4Xb2M/Wo+VPh5Prf12zxu5H48tCR4vW0IhT6fu2c+3/t8Pfs4mz4trYg+ZkOKvkdxzb5Cj6a9ol5hPFOruD3v3W4+GkB8vu1t3r3uZH2+DtrGvSB+Zz7dMJc+CEeTveLRXT2iR/e8yySGvXYlKj6wT4g+ucqmPXskv726kza9k5yhPhCMAz5/pj++cjS4PBZACb7haiy+0yOfvd044D00Gaa+XdK6vQAyYr37EM08dzBRPsAtG77w/3m+M2W6vUMhD76BtjI+U0SNviZuxz6NMJQ+QvDbPoSZFzvh0349p0qbPaqE0r0doko+WkymvjqYR738n9c9ylePPHb1F76uOBe+Cy0ovtrzdz1K3m88lJMzvrH5Nb7kcCK+Wcayvatyq77EbWG+3BjLPTftgT0UAV++ytjFPdBubD7gJFG+akkjvlGQQj4bWSA+tRuDvDPMK77oLlK+dTEbPnhK1byrjIq81JsJvRb3Yjq8GBe+M72BvETMWb4URk29ruqdvZnzNb4wN5k9Sb3pvGptkL1wTv29Mt4dPcZ9Zr6t/r29W2bfu8y2+71Mt7m9xznuPeOrer6vpZS+Uq5Svo/g5T3GYDY9Cy9OvWoPmz2TOSe+3soXviMuzr2M02i+CdQ5PfLixr3udL2+nE6BPdL4Hb5sFEm+xPwbvoSkCL0cymk9j7Z9PeG77r3GS+Y8TB0HPR3jPb4ZHgQ+9eiivAuBPb5r3QQ9aCsPvo7gJT1JPaM9ZUpJvsKL072zClG+PGwNPTjzCb6webG9lv0Evh1Uuj2ex7K+VDrjvdojI77ujlW+YVryPY/0J75GOIe+6xf6PbrMKb5GZX48fm7RvaWEOb5C/wC+lSkjvh+mPL7xUTc+lWL2PRUYeL7+ndm9GjEfvoM3ZL6/8YS+sfGxvaShoj1i4OA98DPVPAWPXL6o3cM9RJSZO9xjT7wbyWC+JLEwvjiF0jzdDma+PEoYvt2w8LwyEWK+RsC1PbQSFL19JUG+Uy3gvWjXbL0UGX08RzuIvAxM4j3TGcO91p1tvrdMH76us4m+vJWUPZUrSL0eBDq+/9d0PnZ4sz1f6o2+V46PvPElmL3IMVU+eh7BPW6IBb7/z4k+kw67vPzfiD4zplg8UhF3PMszZL4DAis+VjFZvuhfqDyvgJK9+i6vvmkDqr3GE1u+0zx5vb5Haz6mf7Q95/khvgeJqr1ORte9B2ySPkkEgT1cfqU83TbwPT3VMD1Rmvo7J9LEPcnNPz587cu8GxDAvZBl+rv/HCi+ndj1PNuJDD56d4K9isdnvujWeb7+iwE+dydsvT3Iqz5I4cS9SErRu8NWqT206bA95cZ8vmk0ST56Xby8DM91PclGi72GCgo+owKwurRzEz26sSq+r6d3vs8ZIDzIkY++N/IkPhmgNj7spYM+HTKcPU1hTD3nRs29x03BPiIImD0PPL09xdWBPdyyFj7ALYK++YcFvvjfpD6KZNk9ytiMPrsGVj3OFsq7OwsvPsa6rr3P1kk9OA51vbkfuLrmRAW+T/dWPrBzur5AKVe9gQjpPdyIJr7ss4u++FzYva9hNL2krhk8M3whvFYZyj390VI+0/mbPnJnOL6Vusw9AeXoPcjIsL2WYPK90UiTPe2muD1WLb49uhqNPZCTjb2Ix4i8CvDPvZBUir6Xt9G8+JyMPB6G2b3UuSa+lBWtPT7R5T2YuHs9NdNMPrOguz0PTcm9S1dCPiH/WT7g8w09I6ScPWskLD0ZEKq+SmofPYOr0z3mVz8+Q8gNPsKmgb0F6g4+8rKYvEMGDz6BJKC8MyZsvk5Dh76gwka9Hf/RvMxKOD1fcgQ+jwpgupBlkb2+AMU82+wfPYt8rLz3jwU9MWeaPkrOiL5lMEE+lRx+vj5iCD7lzy+9+n1DPqHXP73pI/g9+chXPraru73UEp28sFUpvqxU0rx5kWq+cq0+PdYERj42Q3K9VIgkvs52hj2Nf06+qshFPnRBnb2kpws+28siPp1meL2EiSq+Md+NPYbU7z24EP89XEBNvdQyZrxmlI8+YsspvekCnb249OG9zznwvdlB+j304o0+EElrPI9zMz50XDi8dHxGPiShyL2d10691pafPQV2sD7H+gi/IM6dPvMJhr2Ez5A9WsQTvvsrTj3uNVs9LE6EvbhySj1DLNC9eo1UPcVULT5tNyG+XwloPiqlTj1NOsY9DbKqvS//lD2Q/vc7KaT5PMKoAT0spuw9x4CRvRYhH75qTAE+AWTpvhwOPr6MkdI7d7+WPXekGD3IO0W92ERGPZ63eL5ZMzi+km/JvWVUHT6oaV+9L6muPvv90L0O5tM9zZxVPi1tBT7eReI9uvaUvtsEJj1ofyM+ha5qvgxWWr0Y/YS9sY8YPXFAqL4UZQa+bgZiPcbyOr43llc8jtNdvriGFb7zgvW97nUJPmNE3T10Mi++b+9VvlWuIL5sk1G+5QtUviF/NT4Vmo29E7iDusr/Ub1ml7g9C0civs25nb3K5Vi+o3RRPjrFNr5n7ws9qKZ8vqP22b0qCxO9vtBePTHFTL7rcFK9WueTvltE1b2j3YK+uTTzvchK9b2JzZY9G+yWvCFfJr2Cuwe9K/7UPexHkzwM0T09vhXovYtZfb6Vbmu+S8T8vVHwqTv7kDW+6wVbvhEV5727aw6+1bDrvOz3IL4OggS+1BM9vpIc9Dur8Jm+No1Hvn+uGr7YnXu+s1ClPegGjbw6z+c9nthLPX8Vj7w7mwO+Q8WtPNY3d7x0IQw+IMkGvnkYrr2C+T6+nDehvVVum70UCZ69WqMEvvG1o75iTMk95SYOvkV1BL4hqQy+hL71vTavwzvRAxW+HTGSvrp5473Dt32+rwG5vIOTNb2Czvq86QlEvh4kkL7POVG+tOPovIwSwj3HQk2+AafjvU3oVL1p3y6+AYSRvSDvKL5cSi+9XDzfPM7XF7y1klu+I8OEvsJ/Wb5UHPW9eUc0vngXFr7ZGoC7jf5PPTTaKz3eSVS942LivR3kuL1V+FG+I6I6vTUECr6t+0q9SJEuPnWu4bw6mAe+LFcZvd30BL7DhO489/oVuos9u71zjAS+Nn0svlBpjbyDaa+9XfQOvYvOJz7Y5oA9UEQbPsjPDj7x+UO+rb4lPngx7L0X0Gu+kCpYPNH6KLxM9O68zgoJPMMw/r04LzQ658WLvIy/Lr2G5C89Ijenvm8KNL0h+zC+GYG8vTFRxL0RSIq9LTcIPufTPT1GUmy9FfEBPrtSzr2cW9C8Jw33Pc+ouD3y9189iB47Po7mqr0xNzE7HKXyPQyEMT3ZlBK+mNJPvN/isb4bXT6+K/M/Pcr9p70dvh4+3gWXvUXqKT279r47NeEKPdiSFD5xd9u9eUwAvv/zFT5xJ9w9qW9EvXgU3L3EdY69WzymvrFj7Dzg7pk91AHMPS6qPL4MOKG9l4Q1vmyJiL0gaGg+SxIPvgJ9sD29GgS+RVsyPWE1zL3PT++9KQw/PjVBaz1ewU++tssPvgia8bxuEaq9+pJUPjqbIb4nLWq9Wzg9verlUr5Sx8+9gQ8kPbQU1j3kAus903H9vC3kK719Ujc9vSQvvtZsLrvcryY+JX0SPrIlmbkXsIW80U0JPNJAND6cDxI9zs86ve5B1Lw/jSS+3yTpPSdBUbzFmAe+aBbGPY/dAb6Xtf693c4nvAI/Rrwzviq9+PrPO/wBcD3iYCy+WMnzPS+zDL3mFMM9A+44PB9GGjyAHnI72D39Pbdz6jxc4E6+AeJdPq5qjz3e0A89GVvMPeOrKj0Wroo9JMSsPX7fhz3vmsg8L6RBPh1IPj4yUUq9Xtu2PZLNLz6cABc9EdzBPWk0NT5CZLC9So4HvQtKp7yLl8w9iSjVu4P2nD2v6Y898hSXPSY8iT2Q04o+x/0RvcXZCr6fKeo9cK6xPcT+/j08sKo8SkNmvciEMzz5poc+mOISPjoWVT041mq9zgkBPJXYND4B5fM9bXr3Pb83K71BgJK9Tv2jvlPROD60xAK9V7kFvVXkUT67xgk+P/0gPbspb745wJw9Y9SAvHOSPTzRm688LuITvgE6pT2OwXg+c8gMPKOJ3TvdKV+9Z06ZPWqksTygsFo7Z4bhPYx0uj3pkqY9S2wNPErJgL1B1bs9GFA6PtBsa74JVcC9+1O/vPLcIb1fksq9PfrfveVfkT2vrdI915oLPo5F6rwyMJO9WeC+vVZQUr5TsDI8Tx0APsh2EL7D3r69Iop8Pa6Lhr5Snc89tt+VPgP+2j2OsKm8kJnPvY3Io72LpXe+GHluPHrRoLzgJGg+8qmsvULAhD0mzZS7vndTPn3H2DvI5gg9LvZnPeg31jyaCzM9eiNRPVjphjwgtrU9F/nfPd24Gb2lI+s9C36yPHt3oT3MriU+8sQmPSN+0ry8bZo9IeKpPKCgO72cs1o+bpP3PYRPJb02J8A9efWNPSMHVTvcpkC9dnSKPNKqsz3kegu+f1k/vn8UOr4GFwY+3pguvUS+tz2ROlo8tm8hvrHfzT0c1NA9w4X4vWroCj+94wk+NuXJvKaCIL7qpLk9nwIMPYVSkz7tiww9jfY9PpR8pb0y+AC9L6+cOyODUTxu2my+hQ2aPuw6oz7eGig+ePbvPbGQrj1Th3m7vw9GvnLqN74X6zS9a6Xcvem60b22v0w+LbUmPQbHbr0a0uq8MqaPPoYHhr1M7NM+NKgePqRKQj4aoNA8/w3hPSsbwj0sWuQ9mcYYP0P5l77WCDI9krzHvFPzBjyc6RQ+3jYkvgSOGT7huBk92Zhvvsqsaj6jKQi+rxkBvbiYoT28GC0+trGVPTq5aDwWm8y8//RUPZcSSz5Abl2+iw6QPl3Wg7xRb+I58OKmvKBiVzlTMB26kLBzvcijxL2UuSQ90LfhPbk+ZD1WMYc9O0hGvs5LfDy15ZS9QNS7veqjRTtISBC+UyhuPpS6gL3Jkre7JIVzumvKVD4q+Dk+SF1oPvJBLT4AZA49MyQnvHOuIb5DXBw+2J9/vYIcIb7dT4U9CWbNPkiMvr3rWXc8e31mvMG6Wb1ygZ677wjivFUa+70Zy549FZMfvPfV7z16DBq+JHhbvvKvjz0y+gA+6+eAPFsDBr7DpQC9UgxBvjbv5T3unr49rEwkPgX3BL5J414+T+l4vRoOnLrOIZQ+2WDZvtALuL181Hg9BI6pvTqFjL2tLoK+Wsx9vt9Ku77ltsS9bCsevt6hoD0iKhM90dOXvXt35b0gONw9hb/DvZFco7zp01Y+aO+gvGnVNT47dBM8KD/avo3/aL1J2AC9CJoyvUZv/D19HjM+WEoQvBsJoz7bsok94esXvkotFD1RHdS9oZ00PvCluz3/5Rk+cO6nvBb9rT3uEAi+R6PDvGNosz3zZZ0+wGrDvjWAzD1xbFK+fXQrvk46yD02CYm+X5uRPtLynb7f+g4+XGy6Pd7eFr5+7rg9u5WdvpFqgLyxpB++Qi5OPk6uBT4XDda9HW4yPinwUz5dKSE+JH+MvSucr7uxFmu+5bbxvp4uTT7GgQS+u+mtvj0E3D3h5Se+RvwKvw5JiD4Myjm+oW+SvqZm6D1T6RI+C3tcPoluBb7ICzy7aeCBPQgDeD7EY2e9JylGvssMOL2oaRY+dkQGPcQ5N74dioW9hAgevfeBGjzE3UQ+7SV2voaVu71+6x89kal+vrMxGz1oMpG9drKoved/Jz7sHsS8uMgcPhIfV77ggDK8FcRSPEOxWr6QyIc9IaXWPWImDDzExxk9EI02PpDzGj5Ipcw+8CrvvjqE/jsBM06+0G9avbEazj07dIm8uvIyPjJxoLyiBoE+s+CXvgvEO75mZo++kaDwPWZPkr6vF7C9Yt21PSYEmD44bIa+BdL0PqmccT2nokq9ppiCPNFLpDvDY4s9d5syPl0/3j54sjK9GJuqvRggmj1Yq0u9dFV9vV09gT1qWRg7RknNPBuqZ77DeOk8f62WPrRIyz7aqZ++GfQivnFeeb7XT4Y+hgP+u6x15D1R6LW+qEMHvQT0Ij4LNgW9ZxM/vaexVr3M3KU+Cc9cvoT7mD6BokE90D3Lu/wEiD5RLg2/H2umvnH1zr0SEmu8h9RVPr9+I75MV4m9GqenPl09OD7b3aa+J7+WPUweM74gPF69HhznPXSRDL6LZ64+YUrYvSIWfT1biI6+cBikPWHEgr3zCNo+1IrkvTgWsT4k5im8C/RXvgUSMb6MMkY9MlR6vbwpAL0YyDU+m01yvlZGHD1Rtlc+ARecvGnzJz4Le/Y9FWioPSUtJ77biuk9fmKQvuhCdr68poY9jsmqujA8Gr5EjzG+Q54tPglXSD5tLTe9NxJgPmGGVDzZ73K9j654vjKXWj1Z8rU+hIhgPQpcMj7moRo8MlDBO9fcHT66/Am9BGPYPdCWLj7hXqs93L6Fvn7jaT5pxAi+UJcuvnNBMr6eIlU+5GwIOPUHIz5YL6C+LQUav/TZC77yVYk+qPDGPbsW4r2o3ZK9wcIlPQw7Dr44gF++wdFEPrZivrwDCyw8NgsGvLG9iz6lZKo93j7zPex4Lz1x8Yi966uXPfPdpz1qmeK9m/D3vfW0Nj7BHYM9qgl1Oxl2PL5/pWA9eWwDPU6Tobzy7SQ8WKgHva/g6j3PK0S9Hs0lPYqwBr6Op0K8aEAxvhHrpD58iUE+ZeLGvWe4qz1+gBw+zfwfPuJ5eT32BhQ9n8YSvUu3Nrt9XzM+JAmvvXeX7D2WlJC9ELSQvUSaLD0LKLo+cLgLPtQ16zxQMeS990yVvUtlf725+ZM98sR3PsMLY7z1Ggq9cG6uvE4RtjyO0Lm8MszYPZsRAb5NFJu9Al3uveaZRb61pXo9lV+qvVxChz3vTIc9xrALPkUKQr2hnLE9I8UbPgVD0z3c7c29H4+7PUvIPj31B6K9UZlMvIx5Ar6I/BU+gxNKvUD0lT2Ws747ghKOPG13Xj4OvSq96pLsvWcRMb2sho0+nXawPGWohL0wP1w+o8cMPgNZUj1SKLE9Ih6WvONnZT7oyT6+bn72PUuWRr07oIE9JKrsPfw6H76as+i9/ShaPcOd/T3FhnY9x295PonxK72wLlc+1//mvdKjWz1xHw09RxjMvTgRkL2kYnm9Wb6ovQYXvjoa4wW+pNJevmHdMDydyqM8jrJnvT7UpT0JTga+2lSuvTwqn733RB+8zX4WPSRBkT2B54o+wtz3PtgLmjzKqj49nU3MPfN3D75T/Fw+T45APvclD75qTwK+9bsJvo9Z+73AzoU8Uri7PRICCr7q2o89nUfQPSaGorzFDbm9Y66zvsD7ZbyTgyQ+iGtqPVYqwr0aLkC98z7PPtukAjwFXLo+BVHRPBLvIb7Qmuo92EtJPnj8Qr6LMBG+PZtQPnIuXD4HXhe+DoOcPY7D170Qiqa+Q9LjvexLnDsNkZy+UhLCvbWfO76K2Vu9oqAGPg2aOD7H74i+Xu/3u7BaSL4Yl3C+Bo+CPoeNrT39gUe+HMs9PaEpTr4xF449O0SjvnTf3T1o/8E9XkpTvhN3VT42KXq+cUFLPlOtjL0h0qS93aiCPjfVi75lWbK+lH/ePrBh3L1hJgU+P/TqPctpfz79QYG9RSNRPIoMrT7MVZ29acLCvXolgzwwEj69uDFSPVe5iT6x8es8s0qpPVF+azw0m7C8Fa3nvX6N9j4Dokm9CoYuvkJ/qj7vDxc+hU6gPUoi1b1p7G2+HSXMO4Ku1D5X6Bs+vh5SPEnusrwKn4C94T50viEciD7s6Eo9i/gPPVYU37zCy6k9EfWOvdAbCD7gZLg+/bK8vbFNrz3zGAK+yJJ4PilURD7ZwW0+/jiKPMXoTb3uQHw+xdAKvrZVjDz56JU+WPITvky3vTvDUQq++XDePWIukL64/KW+tusWPrR3uL7R0BK+f9BNvl3VWr6QmyW+U6uOPV/Y4L0th9U9UQ31vi1/kr6YgAo+hjMxPX1OFz6kevU7FA5/PfkQLj519+g9voAAPfv4c72hhfq9tAYZPmFFar2tcGG9TBcKvz46xT3QGfO9g8aQvqe3ab3UZ9s8pf/TvsWtfb5VCiA8xWfvvkGQvDtQ/sy7RkuQvTbvKb7TbxE9gyOmPmSMfz6UcY89nYO8PVOvNT5nCya+QRBRvoxn1j0oBzW+r+9Avt69XD1aaDK+lGUGPqWU9r0XLqq+RuCnPjeGGL4dqfk+gV/0u1jESb2TvHy+rpYbvcT49b2VFN09RGVCPtVIBj49s62+sQR9vgI2Wb0vetu7aq0lvvPM+z3HAeG9HMKCvvsNED4tdRC9CD0FPRo4Uj4MSVI+H++Wvjyp/ry6lJW92SrwvfbzLr3FavY8jGZ8O+Y5Wz7MMpe+KDR+vkf1sD798ry9fCC6vYT5tL5ZH2E+nRDdPVc9jT5cjEU9bVvwvWmMkL6Boj69tM4vPdM6a72s2B4+jnYoPhHMGD0Mbq49DoiXvu5+9L2JfJq9nuVPOkUJ6Ttq/769hXpevipbIj22VjW+z2pxPcRK7L2uMyk+3SCxPXc+Bb5MayW+eUO5vLlfWb5vlEu+ldodPLjlUb5OjJQ9MDSbvrihTL7kMkQ9nbBtvq/HBrxlK1i+1pT4vdaaVb1+uAg+mPCxvU+qBL3aoTG+O4Akvebe9r1GjBG+WH0yvmO9sz2mgUK9hH4SPnSWPr5Ll4u9WsocPmKbTb0FDtO9T42jvB1wf75/zyM9j/0Jvmxomj2wW8S9zasjPPDQFb58FIU8LwFaO178ar4/As692aA3PaQnoLwcm4O+7iUPvkmmfr723aO+QNkHPh1bWDwUqYs9hphwu1GUK75CGRc9MRHau1YeAb6emKi8ziPKPWjvEL6gH16+E7SLPbNXjzrLEYe+7NMXPnKh67vyG2+9DtKIvUEOBr7D/cQ9v+lyvvidcr7E5B29LMFQviTi/b0FDm+9GUjbPdyxJj66VCi8rqXJPZXnYL6IHw0+7aDZvPi3KTvHkFm9Pb9svgkHBz1iHSW8DOpUvd4GWr4f3dK9KB8pvnQjqjzt1AS+elKCvUw7R75Psf29rqmpvUsTOb5TkZO+kc4bPdyhnzzvb608zTWdvn39OL4F2wO+UXU+PXerfj1ZwLS9iwfdvTquDr6HFWC+TxqwPUL+U77Zigy+PYtkvoJjUD250SQ+Hw6rvWBRBD4SSf69g81pPTSKZb6SfbU8M5JwvjkX4Dy1AuK9ooE4vaLh6bw/hlG9+S3JvvGQMz4LlaK8yhs9vmmpjz2Km4K+iTEuPdowl76qmrk9NyUQv6+LU7xG6ma+5CrjPVfGRz2dTRI9qfF0PTxgEz53/RY8aXN5O3YG+DwKy4E+zIrzvdaCYr7WeBC89QZXvdQ30z30SRM+qpbou9aWMD6SN/U703jouyfPzTxVeXA9YlhlvcBgbrxnYsm+xAt1vqJGLD76NVA+E8AEvujN1b3M1Ti9sb5svhMR2r0C2n++Y96KPGSjTr2AIPi9HuhTvYxQhbx8DSU+srmjPchtOr0AKos+VBquPJUhsz2/xJW8vPIRPUWsJL3M6OM9BNNGvU/fRzwcG9U9tXvuPUuaQD7vAVO9OlS/vgk4mz2dABm9hCkavr07mb7Wgpm+q3wePun6Dz5kJjY8WxEIPXqpxz0Nryg+K0+fvhmuSzw9soC+aewRvnTZ97xKQ+G9MxcUPr5XTT4UitI9RoWCvnlxzb0m9ze9LQCnPhR/iz6Vvry9+KIQvXYabj0fWkU+84R3vpCYSr42zqO9CBOFvfVcrLzRE8I9mw0OvmmTlD3TYss9fRl2vpg6XL4TM4o+gv4PvW71w70onB4+7digPS0P/LsOvqA90kAqvlSubz6gDFe+9UIovfIfWL69J3G9RnobPtdHtb26Jj2+fUiJvgyJUD6Enys+bsRuPJJdPLwMcSk+xW8CvoBgfj2IlwM+IPG0vV5hfT320dC812q6vduZFz379a4+xsJ5PU/GI76mz3G+MA0NPkREu7ghWfI9jM0LPTN9fr3p+FS+7vjGvQNPi721cS0+ZS1hvqZZp70T5Lm915/FPGm5LbzsTkU+/QsKPiQ6L72CCke9rqcaPc2Kzz1OtWY+3FqZvX+u3D6u1xc+M2IaPjHFIz4d15E9pdVHPgG/VT5glXs+o8pIvGf5vL5DEDg+fHSZPiTzAT6qC0A+FSp3vcuIrbwuhQK+Hma4PSIbtj3lHEI8rSQwvN5Hbr41xV2+RHfoPVbIRj6l6yi9OYVVvcrWHz4vZCg+uGa+vSYLTL5QbB2+/5/dOXl1iD2gSVU+ueKivZMSGD1Jtc+7D9YpvSGI3D0syi0+22eePeOOO732r/w9h/QMPj1vCT6gaC29hgagO3bNt7wfX2S98rC8PXoeRj1+wQM+FMX4O4auab71DHQ+RouSvoXYhz5d0Bc8iANRvoawZ7zLzB4+8s/UPk3aZz2U14y+gGhsPUR1gb6TCAe+EL+HPaiROb6KXZk9RJoUvmKJXr2WE+w96/nvPUNKK72V3CW+pGRuPvDdMjw+UoU9Ln1AvWncR7tKn4s++HVYPQc6Lr4fWwc92a2Zvfj05j3Z3Jg8zl9jviQJmT38IKU9"}}, "dtype": {"type": "DT_FLOAT"}}}, {"name": "sequential_1/conv2d_2/Conv2D/ReadVariableOp", "op": "Identity", "input": ["sequential_1/conv2d_2/Conv2D/ReadVariableOp/resource"], "attr": {"T": {"type": "DT_FLOAT"}}}, {"name": "sequential_1/conv2d_2/Conv2D", "op": "Conv2D", "input": ["Func/PartitionedCall/output/_2", "sequential_1/conv2d_2/Conv2D/ReadVariableOp"], "attr": {"dilations": {"list": {"i": ["1", "1", "1", "1"]}}, "T": {"type": "DT_FLOAT"}, "data_format": {"s": "TkhXQw=="}, "strides": {"list": {"i": ["1", "1", "1", "1"]}}, "use_cudnn_on_gpu": {"b": true}, "explicit_paddings": {"list": {}}, "padding": {"s": "VkFMSUQ="}}}, {"name": "sequential_1/conv2d_2/BiasAdd/ReadVariableOp/resource", "op": "Const", "attr": {"value": {"tensor": {"dtype": "DT_FLOAT", "tensorShape": {"dim": [{"size": "128"}]}, "tensorContent": "3u8tPJS4ZTzpq+S82D+2vNKLV70IZdG8Fb1rvKpIBLxPzhs9hASqvTjABL5tD+S9l9gEvgH8Xb0Bq8c6+KjaPTQNGL2QGq+959UBvYbdj70ZoIk8fTrfvSfJ6LueD5G9ssoZPOHkuT1Uk7g9PGPxvPLYyrxFIXe89YQmPNqJjL0VR5y9X0fNvAMrmT3y67O87YlmvhumyL2t5BG8lLQTvikZ071qQAG+pX0xPc817b1OMhi910ycPCWnoL23w7+8fOXpun1/pD32mly9LVU/vf/lWb0dHbO9oFKiPUinHjymEFm97M/nvfsBF73xFxg9mAdpvroI6rxJNa69C3K9O3eZ8D0avAK9XxdVvCbX+b3JtDO9T0qWPQv/DL3i/JS8QTqzvYtx9r0ZU2k9gDYGPRMegT2hmTq9RjgePslSnb2HoGO61VmLvMdtFb4pdkK9X0TTPZp1dz2IFhE+9BRQvYizvb1m+8C8doL7vUWQeD0faUA+P+kmvn5Tzr1Q+ly9mRYQPr1Okjsd9mW92HEbPUCYUj1tQac86g+LPVDpDr35hpK6iD8MPYsGJL01aPK7jqBGveRjlr3H5sO5s8ahvG482r2RJLI6BnANvc3yUb5w6wA8mir+vGiuBb0qfgy9TH5AvZvXvDuwn6m9/7Z/vJKS6Lyaxxy+mhQaPXoykbw="}}, "dtype": {"type": "DT_FLOAT"}}}, {"name": "sequential_1/conv2d_2/BiasAdd/ReadVariableOp", "op": "Identity", "input": ["sequential_1/conv2d_2/BiasAdd/ReadVariableOp/resource"], "attr": {"T": {"type": "DT_FLOAT"}}}, {"name": "sequential_1/conv2d_2/BiasAdd", "op": "BiasAdd", "input": ["sequential_1/conv2d_2/Conv2D", "sequential_1/conv2d_2/BiasAdd/ReadVariableOp"], "attr": {"T": {"type": "DT_FLOAT"}, "data_format": {"s": "TkhXQw=="}}}, {"name": "sequential_1/conv2d_2/Relu", "op": "Relu", "input": ["sequential_1/conv2d_2/BiasAdd"], "attr": {"T": {"type": "DT_FLOAT"}}}, {"name": "sequential_1/conv2d_3/Conv2D/ReadVariableOp/resource", "op": "Const", "attr": {"value": {"tensor": {"dtype": "DT_FLOAT", "tensorShape": {"dim": [{"size": "1"}, {"size": "1"}, {"size": "128"}, {"size": "16"}]}, "tensorContent": "o8i2Pbh4gj6Z/m8+t1tUvNcSkT2Rzgc+JZVDvf13kTxWMAG+IBYpPlr6cb0OEdY9rnAFPaNdrr0SRsu9PtjmPbGBUT4pATA9l2HbPeXqcD4xPmg9GIorPYt5mr2yDwO+tQIsPiBLKb4ASZq9hcGcPfEw/j3lLSw+71ovPs5fnz336bM9ADEFvS+tDDxA+FA+70/6PcqdBD5Qyja+fDE4Pem3Rz6qwtg8JgWpPUyE9jzo+Vg8b+SvvFx+qz0Z+va7F1wiPffIET3o4A0+ufDoPob7vD1dgnw91qjavT+h9zyjwIS7FOMVvmfJI76jqB4+nYcUvdPvG74TJDe9JQfxvV4vSj6JiYE+ic4ZPcPkoT2RR/o87NK5PZmFQLzwJvu8pC1nvuf0N77ysCS+QWLmPKAu9TzY+ya9GxEZvJY9lz0cODC998XjvPYy8Dvq4LI8AMAKvu9lzL15ZQG+BCo/PDw4ML4Ekha+Ut+qvAWWcjxM1sk9Q8H7PICeOj7sFS++N1TevAVpGb03kh48xNonPTX2iTwE4um9J64Qvc4TMT0Qs8U8eKWMvilZKz7hbB4+2mHAvVHqEL6MKky+H6RDPtodfbzoSJC9IX6ZvBoIiTyqLKQ+Szn6vL+XwT3dQAs+h5hWPtAlwD2o3py7xjLWPRkDUD3fa8K94jKRPUUJJ70fQDI9k9V6u4PnlbvM+nY8qOnnu9+poDulJD4+BBUkPlLaAj439Tw+HKC5OgdiiDytecY7x5AHvtAKC75a1bI93tWqu1cOJzpBVok86+h+PS6mGz6rw609NrCdPa0vQj2aERc+hGIdPS/XDj656sk9k50Ovr74CT7zj4A9wfQOPn6MnT6ZWYy9auBovRI8HLxaM5E9aP0xPY854TwxZmG9L106vWC5CT5sWNy9rcCTPt1S37yZzrM8VHFiPcErJ74Ap489oLSOPayR1DyOnJu94TkdPtTVMb6npUM90XI2vtzM8Ltgv2I9owzPO4nLXj7llwo+t4k9vvoOWT0L1AW9EEcVPkxk+j1fBwQ+4rPGPDmd+r10HNw92rb4PfSgoz5Ahpy9uON/vfq3fb1vTsY9/EAoPsEK/ruBhqm9WmCgPZHTIb4l0ai9NqEAvvmxlL3RI8K9BnnPPHsP+z1BkTi9/ZoOPnsy9j3fLKi9vKyNvTaroz0v2hy+LneLPVmhBD6CYoo9HSbrPYshpT30RHK7+Z1cPprShjxLfXM9dqcEvrt3Kj4HEwU+4dDOvOqWEb70PNI97HnRPeeKyTyaCbQ98IFKvLDGVr1GlVu9i61pPC/+6b0gTuM9p2iwvdOUd72T/0Q9nJtwPT69t72WO+G9nMZhvU5+iz64Vfy9PU2FvIo9tLsd3Qa8SRjZOw16FD0UezI9iR2evRCnBD4FLbo8iqkJvuBdir6m/4O8DTMYvgj+I761owO9aJMdvQ3kG77ufTG+4nE+vUSear3Qq/y8T4XFPWagBD2c9o096jZKPo2WOD3MY8S9a4suvFaaGj7EMQc8j+7mvQe27D2X8589wG2sPI8GSz1hwKk9f9WXPApj4rv77Dk+EnapvXtX5D1rdT08RwgiveS/EL58O8A9q1D2vSdbJD3/LVw8JlKYvSfoWD3UC6k810WkPG3X+T0v0Is+ppz+PUI++bxNLRs+/46HPkODUz4DQLQ9Xrz9uhspbjyoQDE9W40AvHV2rT5r0Pu6aRLWPJqvnTzJ8508/1hnvi2WDT65hAa9hrCVva7k8z1+diA+NnrSPQJqXr5mFiC+eH17vYXMYTzD54M+m8GhvQOkwzuyEjQ9QpLSPP0/er2+8kC9VPsIvlZlZj68EO87ykAfPg7R5LxtSKe9FmpUvZ4C+b3cjqS9K79jPkJNKbt6Go69i2CLvWF4a7yqrxS+4emivlBUXj1cbkq5wgw2PYyPjDwYv9C9fBEKPYJZ6j3KCQM6hhbyPSdgCLuPlqK9LAhvvVoJQrsqcvY6a8orPrJmjD0XK0i61W8WPpso2D3NmLI970OyPeYjFD12+AE+n3GyvVk1Kr7ZkgI+H2GEvMF9czwQeFe9t0KEvI+mAb6ZGyM+jOwRvmrtzT0HtBG9EG0BPgVlNr5Ao5e99dEuvpkGdr1tfWs9VkszvZhbJT2bqGm9JDcFvawncL21pcw809RYPZgh2j1tJqq8fQ2Hvfl+zLwYhe09d20LvgusFD7wGSS6MFs3PuP3oD7IP7E+f7+BPpXrLz7cBzW9khTRvTTLkL72SzU+NbM+vj7BGjw8ZYk7fMmxPJ8sDj7KLoq94eHlOxwsjz3PAb88tpCRvEFODr3nz2i9+oyhPey6VT4Ob489H/LjvZzgBT5XTCQ+6y+kvW194bxwfkC74g8lPkh9or3+eN68hhs6PoufGT2gk6U9Li2nPc+LLbyzNim9yqHivZlOx7w2JiI+ov0DvsQSGT5gvgw+jn3kOsNs3T0zjN+8Dv5fve/W4r0647C9xYi0vcOyUr3FFV+8S+gyvpB9Ar4+02a8uXyEPM6sz73SaYW7XstmvYqt2rsMBjU9JEoxPisrx71qfUS8phCqPSLNFr0THqy9Rs2+O8vuoL0J7H8+7ff4vTlZdD1cmJG9MzFvvqHBWL1EmEm6ETopPVkDIT4HaQK9S5RIvadGBr6OPgC+mwalvSZcHT07qtw8aLbVvY0nwj1SnkE+gLFvPafMyD0/uE09XUYzPj/kzjy8mSo8KQETPqW5jr1Zou09mDrKPThtwz35XRQ9Gu9xvOimQj28+cy9yBuSPrmTEj3gZ4E9oxnXPUvIBT67dcI99YkYPv8uDb7xKSW8en6IPfSQ3j1YhoY98NVVvSq2qb0qNDW91p1nPg/3lzzp7ps9nSYvPr7inbwiAWc9xcBrPU9nWr66Dmo+43jeO0Clnr0tgay9JgTbvFEIo73Us4k90t0sPsr01T1SO9g9F0gPvQ4tj73apRc9Bw8CPgOBmj1HKZK9t74OvWBJlrtPl1++O+Ihvk4bgr224w49JX38vCzjbD4d7S698P8APhGvU7vs/aq8R4K2u19inrzCr7s9iy/YvfFsAD6SUQ697WezPVOFAj6W+6w98wiCvdc+wD1rVT8+xDz8O/IXP74EGJg++eQ4PivfhL0kGSe92MgfPkc9Ybzx23o+Z+bpvaFFPb6Clfs81Q5xPRxpcjz0tNM89ZGoPveS9z2o7xY+B/djPk+hhL6kf9i9hzaTPl0+PD5hdcK9L5L5PH7dvbyKPxy8jvvPvViNnL3JXxo9dq3uPSYiqj0jrfA7b0KqPZi9jz3W8ws9P4PxPGn6Oz4eDQ27p9Kavc0+jr5WSiK8swunvZsonL2y9k+93fetPHfnfLtqWha9AukYPkORej7IydO8lXaOPOswLj2kiYw9ufSLPANboz2G1Eu+7Z1hPQY37bxR3rC94Z2lvVtTID3WLLG9IzhKvr4jJz4O1wk+ISlgPcgBCD6wdA6+JCiAPtTO7DxaF1s+/F/CvCjp+DxrREc8GgeTvC1QOzynxUk8yMjLPe1O2r2yg248USHYPd/xaj3EvHc8SCCrvSnucD7bdCg+Ps6JvZExi7z9KVk+NM7LvALmAT5dgT68/JwevXrZvz3OHhC+xi9+vWMunb0CscS93jAFPuUOAL7GgCI9HL+5vdLBl7zhPIy70pxevQBuDT4ZsDw96hYXPOc/WL1+tWM9AZmavsnCjLsZTY29IrwoPklI27uV+OW9EUluvCRlfrxJiRk9xS1qvQ/WqTsOMtu9Hfghvq9oHb5NV2s6F8x0PaGRuT2wyWC8E5pgPdw+sj1mLXo9BualOF9HqLrl/8G7tDhbPavpE73wyBQ+uO04u/WVYz1Fj5w9BGLCPOx4kD0FS7A+x7novLJsxr0w7YI9JGqtPZtDKD5IkwS9OZuevbrKBL5thlA+vG/5PSnDsD1V4Y+9MDaXvXVSj7zOGBY9bmwXvnH6U74X0ts9YVz2vUUQVj120XU85I7EvLi7/j1t8L29FO7xvSG4fjwRWPU9OxcJPiXWFz6NhxQ91e0+vkWq0TnH43Q96E9OvVO6W7y9piO+z+4OvnqQ9DwT1Iw98xlzPedNmT1PBm49aGzxOyvvKz2oc5M88kTFOydUlz7bpNC7tTqbuwQH97whxg0+rz44Pn5gyzxdvCC9ApLiPWyi172+Sca7DEm7Pcn68z3Y+Q2+5W0aPkCJsz3USho+vvQKvvKuSjwU0u69ajigvdMpLj4stou+vilavgb+Hr7Beiy8UckbvRN2Yr6R08C8U7iTvXOsvL1atdO8/49wPnDmyz25Da49Lde2PZ7THD7JkaI+vbG3PQneIj35kZI9gIY/PbFoR7yHCiM+JkxaPfIsVj1QoEm8AgQevA/ORD7QFfK8PNmCPCVAMzylCGU++ZIbPrwIqT1TWUa9KN3kPcyVKr2ct5i9g9vbPcCPKT1TJoY8ECUiPYT+HD2llAM+7PQEPkcOdz04nH09BIWFPs33tb2eoGM9IE5CvX08nzxT7Iu82wUJvTJs/jyrrwe9+ZAcvO15Qz3Dc4g7YXIWPYm4ND6e65I9eo4ZPVMAJz2b0kk9qzSsPYv4VD40Ngs+xNlQvjZNCL4OF9c9h+H5vGFwbT03Sos9lNm9vB9sfbg3r1K9+kiDvqzGPr0q2lu+mepQvGBPgDu8MZO9o/GdPFplC75ahPo8GYMgvnYdfz6EMgm6bOqqvC7UOj11bpO9UxO0vPjGQr5Y4C49q0fBPSUUbbqJe1k9GtUHvZlCdr2bFma9B9GyO9bqGj6WFIc8vrS7Onk/Fz18UQk9Kig0Pg0hpr4UvSi+ilfpvVqeJz24uFG9/FIYPkf6vTxyKmC9QWWVvbMVqLwBHGq7wA2OvHPnzzx9JOI6T0XFvCdqnT7je+Q9rVyMPOOiAT4G/oU+bGGcPtoqaT3mhC49ru3jPTmZmDp4ypu8Zow7Pu0lcj1ifg09jQ8/vKQf4DxzFl+9zpwsPi7psbw4Zlk+I1qOPm47Kj6Vesi9FlsLPrerp70JEYI9qcwdPoiT6D0IeEE9yn35PcB2fz20uHg8DbvXvDC5DD6yGb49J4cIvIM05r3WIQ4+YqGlvOkUUD390KE74+OmPMt6Nj6cWkI+FwwovmIsz736gQK98r2HPIMqAz5u3le8d9IAPuB8Oj6tfRc9CsrxPanQ7jxTOjs8KT6nPjNibD0O/gq+wRd7Pfgr8bxzPb+9wYAivV+Smj209Yg+EWqVvvblj73Ip9c9KVrVvdFdDL7x2Nw9VR7aPQiPJr1H1pi91UNMvulBij0bW+C9XxE/PVvLaT3LYGM+dkEzPgD6Uj3xhLG9ijvDPQqFwD0lV5K9+769PI1qjrx5mEo+/iqgPfse3rySAU29Y8+9O/F9tLxRizw99bhhPWHnyT3olv+9zumOPp+TqD0RU8c9teLxvdfN170aT6k+RTMfPRS3Bj0rhSG+USBnvpP6dL0INYe93gvQvfloCL15CKA9fa6avYzxiTytWmg9Sx0Jvj0iij0Jila+1TEhvG4NkDyWOQ+8JQRzPoMNFb2UoTm8BdTvu2XSpz20fwK+L/wBvHbqV73xf7m99Xj5PWX7vj1ju+69vS7KO7Lqkbw5FhO+Tf5QPeFXzT2Td5U9q8EEPjxcuz3ZwKU9wARdPSUAaz161jo+Qi5UPfZZSD6bZT4+PPg8PRb/Jj7nhdu92Xr/vc3zoT3FYmg9pSIIuiJMH7zrY469sBeFvVz0/ryzY7C90LQXvH1Lzj2ISqu9unLbOzdgs70yUAS+TRIHPkhQVD1YAg2+WuN/PiHa6z0nQ1C8A6ZYPcO9uT0hj0w8TdLFvTDHYz5RpB09fb8hPXSyJz23RDk+RW6nvRBjEbwN4rk9KawKPfirW716EGW+k7mFOReySjyVkUu9jVuFPI4zlLxysHi+gIc1vd3gJrySg4W+5q28PI3LLD53Bbi9gGGVvWoQTr2v2ga+v6s3Po8vhbx5UJe84YnVOyaTWjybZg0+xIuAPRwoVT07gx495QNIPlZbXz1Odh4+R0pHPqAM3L22OWO+sIfJvXDyNz31pES9n32BvNTyvby+vxm96n6QvUji5z1SVwg+nViQvppCSz79PYs+Qx1dPdLOCL7C1Tm+qvCbvRX4Jz4R8qw6fQR2PY10Fz6SdAY+o4xUPXexnz1hLjk9yiH2vQKiQT1P1rs8chJnPSaDrjzOlbO+XSOQvUOc7z0k80S+soQmvVLCQz5aPlY++HBsPu1AAz7ggMG8KJM7Pmzmu776vmc+OQ3lvfPxlb2B2I4+QfvaveAilr7wItg9mSX/vZ3V9LxbBBG9pCCKvayP57sB/OQ89eWFvUScqj3fUh694gkNPKTFXb3UjDC+Kr7GvDkZw7zdTBk+nMftvYKae76bxfm8wwR+u9CC47wPpzu9MIKfvP9W5j0ntxi+UZkQPuO5fTqDrko+H9BSPnSpJj3z2e49Lq4WvdSNf734fqS9E/acPceJurz/Hou9QT5NvPcjrjxVxxw9Ms/NPvYalz3nHiE9b9SHPip5g7xFgeo8jSpOPmu13zyk0i2+DVbYPTiJFr768Ww8/AfxPMpJG7xI2uk8Tc+QPq33Bj6I3w29Bw5fPrKR3TsUEw8+yhYSPhA7CL4+Yuk9Gu8JPpxilD5ly2g91ZSEPFIjpjzY54g9fzBsvtvEgrtsdoU9vzSOPUSAPD6YgL69d7ifva5Gtr1HZoI98rTbPTItZj2XKw48c/HJvfYegT6Q2vQ9DE4GPtnixT20wtC9+uSRvE/dwTx4XjG90NMAvoNyyT2RDSK+9wUGPtuv6717HjG+EKc8vhcUtrzGU+696p7mvaqnjb25uok88VUVvInU7r2KGqe8S+iZPbJuBD6ICCi9kQz1PcMF/D3Ex6I79dW3vBISob2vUeu9DHL6u1s6y7qY9zM86es5vPpKIT2KqEm9W+BcPbrgCb0xLZE+BmvwPdHJtb3QPnU9GNdFPZHwlr2SrEi992JxPVWGHj5pOIG9cZyYvcx6pbwCnos7cPHFvdOGiz0Lt7I9vbVJPpQRQj5aMJe922Y1PqM6Oj7czqI9fJojPXI0Wz4K/w6+Oqn+vTa4vb3eH6a81tm+vYUj1b3ZEJI9qIqTPXiqPD3x+N89OHKdvfvMMD182+e8SlsIvQxlBL5QkYc9w22ovT+eob1T7yy9oAf7O2vZzL3dIUG+krk4Pc0HHj0khfC9p1r0vUUwxL3MPee9wNfbPRx06jwDI1O9XUN3PlPfyTwckFo9tllAPC8mTbvYFkU+HWIqvqckerzhAeY9xWEbPtftST4UmOA9dPunvYc/eb24PnK9+97HvbIgcLzXrsi9DX64vCpiOj3KUm+9SzNrPMhavT3jCUM+u260PuCfsjlIo9c8LQWCvTChYD5/eZS81PNyPEdOxLziTYG99uIuvlsKsb24Hqi8bshkPaGD3T1AOp+9Byqau+MtM72hKVq9fUySvnpGMrvbsBs+FsH4PfMajb1wUOi9yfiJPQ77LT6zaPc99PMWPqiRPb21EfM9fUMOvunQVb2OuDe+3LwfPfiRxz2KP8q9EXpVPgcAVzwyJc69fbyhvqvUL75fwco9M5t5PM9XAT75xEA+RbsavTRsPD4xqLW9/F+/PUjSUDuNL4W+10QMvrp3AT68IFK9ubQqvvHOvjqGH3u9I9rlvYp5473Pmae8jZW6PQp52726i2a9FJ+cvcsfvj4wU7Y9ccvrvUHE1z0jCQS9Hy9fPjCgWT7wXaO9O1piPmZUVjs6O3e8VjzkvLFvTTveRkw+rUljPEwDbL2xBO88xROOPjRicj5CHro9rgbpPeQsNz0+fRw94uKNPZ4Ktz1WJCG8NNYQvdti8LukOjK9cDayvWtxobuWozK7EAVWPs3Bwr2Tr6I9LI5hPkOyuT39TY27tN5APnLy0b2KSpq8TsykvZRRPjwJJIy9rd8MvmiiHr7K5f29oxPhPHJLYr6IGCs8FewFvjglpD3IMlq+1Kt9PvilWj5x1xq+p5cDvp5eUT7COlu9Y2k0vUqq/bwqgpO8/TQWPXgWB73dfMo9HdFKvTZgF70IPuU7jFVdPpjufT7qWoY9F05jPBgt0D00ltS7r4ASvHCbXrqhJua8wlRdvWdRuj1C6to9X8V3vVUgOD7EOs286Y+TvffLUj3qSUA9H5cmvoGdKz7C4709E17IvQn1c70otQS9bl/zOxHKxb28q5u9+JUKPhwor72i/pQ+SJUgPWgi8Dy8cDY9NQayvIXndj0V7oI9wU8bPUBjCr2L1zG8wjFLvMd3RjyuCTo+YCNWPlExPr2JvzW+NJ3dvQMJAD222jS7S2YLPq/ut7tkZhw+iSZxvR6wLT4MFAk+wwOqPVi30T1Xq7U9nUzFPcm43j4xLtI8B8diuwBcTz0Wx309VNWOvfUBYb5vXpQ8EEIXvTC1gD1SDeE82c2GPd/BETyQnPY8F/DpPEFJe717srk9YOimPUckkD3YuwG+z7TCvfZmND4x1ko9z2UnPdUJLr3XdL+87rqnvaH/4bsWLSS6jPsNu6W1FL3FJI097wVMvQMQtbvuB5y9vPwjPZdT+D3p+uQ9nPiDPakeiD1NNIu960AtvrH5AD6rdqq8AkKVO5RgAztgM9E6P9+jPXGtJr4Qp7i8sLtkPYcMlL6F96a9Bcw4vo1nFb7jEdM8Ks2IveAXcz7VS2C8Ol5xPEGVPrzLsYe9rpkiPbbYBL5F6nS9CaZlu67urz2uDCO+hW86PKG+mLzsdSi+s7qhvSxt7bsRFWy9aH9kPqRUj73cV8W971iSvbrfcT3e/yc+JpKcvcTflj205wE9BQIYPs0GJb6xZS69oL2GvM46ULzNkhy+rSKBPQm4cT5UMyS+OcAsvtWAEL4oEwe9ySsGvfkPdD4u3X4+To7ePEM6YDvQyU+8lSqxvRa43j2fTaE9D3MkvV+wtD39Id+9pxYQPj8tYrsQ+3095SiDPctSsL0Z2tk9QTtDvTzqJD3/NxQ8EiqEvVuq5rvzSoU+KT29vQ2t171SzTC9pfnoPWE/mjwA6Jo6eDwXPPHAqTuKMTW9Ci9hvqL34jwLJdU8MAyCPLQ+Yr6SkBa+KjldPZ6h8DtK6Dw+4lsrPi9HDbytj0g94py8PWgSnbzL8Nk99XE8vpYewr0WzLU9w76zvY/pHD7vjbe9zvZivThW7jykBMK9CxjCvXuvsz2di4g+c2IVPi01IT24iA49wY3RvGBg/L1Wj4q9rCyjvQfPmb3qci+96CIgvs8bgbzw77A9uWMSPnfCRDuV2++9FvPWPfSlCjyvkBM8Y+mZPDohmzyoxGC9kp+NvhgjLD1DWCa+lwwyvuhkWb4xtqW9diHpvVP5oT1VGmw+8+xCOz8avDuZsJs9Ma6ePWdZEj3LzN+6KKVGPtQKL741NrO9HBTSPWoCerwEXP89RLd+PZJYCL6wySm9f9EPvf+yZr5Gyh8+pxj2OwXfdT1lT689yUfPPAD4ND56GJA+PXptPfiaKT7/77Q+EgoaPv6InD3+5qo96LTlPAL3TzzozRm9bttJPhqlVD3vWzM9mU31PFrF/jy48687ev35PSpc771uJJQ+cU+JPb60Cz76pNA92gO5PdHtEL2pFPO806acvYDBk73klri9Kz6RvWnrv7z5Edg8O8WjPRZxBz1ikrY8Ip7IPYK2Fb1ceQK+TUPPvdSeEz0Mcnw+SNkSPv+ph74yFIA98khiPdRqPT2lQEQ9tYEJPVjRIL7gyAu+85BnPcmihD6lV3+9Jwwqvp7Y3r2GbiY+BFTpPfF87Tw+EDE93Yk1PiwDKD069hi8msocvBSOGb4qJew8Okh9PUynej65glY+S6U/PPI0bz3/uGM9lM5EPt6OHb1s4Oy8LsxMPFWASD2Id489WXWdPTaKqj3SVBO9T6ouPLzuEL7RJuo9rp59vhPOob01eC++uTq3vRHBXrzd1A0+jZiNPORfYD3taYW+b+8dPUf+5rwHLIw9myYoPibAAz5J9wS+YabvPXeG1D1jiT0+5A2avLBRm75S1N49meVAvOmCb71ueA2+fsQrPSm22DwPD5U896VovHyImrxFlmo+IuEbPulwGr1Torq9B/UjPtSf7T2rzgA+XkRnvIM8sD1TM1S9ig5luGuqurw413A+bx4jPRwLJD4nwgE+I4INPseR671cvDu9LMT6PSlvLryEyoa+gHaPvafv8T3UDze9e5NxvRhwgb0qRs89716lvKhrCr3McL87R/GXvWEI5b2CEO49wfBWvXfZ1L0p5D++ej8DvvfyHz4CCVk9Rhi2PQNrEz04DoW7g5Fsvaq8F738OSy9terevRMEfr0QsOM9RLKOPSy3nTzKrA890J+CPqUEMT7cxYM+VIwOvhfR+zwxrIC9wu4rPuc3TT6UZMY8PKftPYbW5z0+Bpu7qAqNvNz5vb1dFJa++bYJvPTw7Lw/d7M8ctu8Pbg/kz4WP/C9XB+BvQmAM7kAuhO+jgUpPQFSPDxzuz67W5WYPWJAFT1qQgw+2nggPuf5vT2/3II9AqhePWFffT4CcIa8yn8hvjuD+D3cWCE9o4ONPrYUbDw70eG7hwiEPU1k2jxnjw++mn+oPsdLdT5eBVg+WHaGu9ZUsb0S1AG9pmv+PGbB1D3T+T6+dB44PbEs2r1Xzjc+MGCKvAeFKTpD2Be7tREMPiRvGD49zxg+L8ezvCHAeD6sUFk+V7BRPczA/b138E0+P97IPZTzMLtVdI09hrEVvXVPKTu0Bm69vLbouxU7cz4pGU09IiOfPE8nf72wgRI+NvGeveYltzxfPhM9FUfTO/iDID18iII+p++rvQLoRj1QA7k9Fie0PbH6hDz93UO7eA8fvWaMSzwUnSc9txQdvH4NzTyN6U2+0UG5PYNpyT3aHS8+6ktOvr7wuD0="}}, "dtype": {"type": "DT_FLOAT"}}}, {"name": "sequential_1/conv2d_3/Conv2D/ReadVariableOp", "op": "Identity", "input": ["sequential_1/conv2d_3/Conv2D/ReadVariableOp/resource"], "attr": {"T": {"type": "DT_FLOAT"}}}, {"name": "sequential_1/conv2d_3/Conv2D", "op": "Conv2D", "input": ["sequential_1/conv2d_2/Relu", "sequential_1/conv2d_3/Conv2D/ReadVariableOp"], "attr": {"dilations": {"list": {"i": ["1", "1", "1", "1"]}}, "T": {"type": "DT_FLOAT"}, "data_format": {"s": "TkhXQw=="}, "strides": {"list": {"i": ["1", "1", "1", "1"]}}, "use_cudnn_on_gpu": {"b": true}, "explicit_paddings": {"list": {}}, "padding": {"s": "VkFMSUQ="}}}, {"name": "sequential_1/conv2d_3/BiasAdd/ReadVariableOp/resource", "op": "Const", "attr": {"value": {"tensor": {"dtype": "DT_FLOAT", "tensorShape": {"dim": [{"size": "16"}]}, "tensorContent": "nNlvvC3AbDxmD8O8ZNlLPez4Jr3ikQu9DUqavQXSKr70sCg82CLuvEj06ruVqoe9MnAyvGM7bL1QurS7JU3IvQ=="}}, "dtype": {"type": "DT_FLOAT"}}}, {"name": "sequential_1/conv2d_3/BiasAdd/ReadVariableOp", "op": "Identity", "input": ["sequential_1/conv2d_3/BiasAdd/ReadVariableOp/resource"], "attr": {"T": {"type": "DT_FLOAT"}}}, {"name": "sequential_1/conv2d_3/BiasAdd", "op": "BiasAdd", "input": ["sequential_1/conv2d_3/Conv2D", "sequential_1/conv2d_3/BiasAdd/ReadVariableOp"], "attr": {"T": {"type": "DT_FLOAT"}, "data_format": {"s": "TkhXQw=="}}}, {"name": "mul", "op": "Mul", "input": ["sequential_1/conv2d_3/BiasAdd", "step_size"], "attr": {"T": {"type": "DT_FLOAT"}}}, {"name": "strided_slice_1/stack", "op": "Const", "attr": {"value": {"tensor": {"dtype": "DT_INT32", "tensorShape": {"dim": [{"size": "4"}]}, "tensorContent": "AAAAAAAAAAAAAAAAAAAAAA=="}}, "dtype": {"type": "DT_INT32"}}}, {"name": "strided_slice_1/stack_1", "op": "Const", "attr": {"value": {"tensor": {"dtype": "DT_INT32", "tensorShape": {"dim": [{"size": "4"}]}, "tensorContent": "AAAAAAAAAAAAAAAAAQAAAA=="}}, "dtype": {"type": "DT_INT32"}}}, {"name": "strided_slice_1/stack_2", "op": "Const", "attr": {"value": {"tensor": {"dtype": "DT_INT32", "tensorShape": {"dim": [{"size": "4"}]}, "tensorContent": "AQAAAAEAAAABAAAAAQAAAA=="}}, "dtype": {"type": "DT_INT32"}}}, {"name": "strided_slice_1", "op": "StridedSlice", "input": ["x", "strided_slice_1/stack", "strided_slice_1/stack_1", "strided_slice_1/stack_2"], "attr": {"T": {"type": "DT_FLOAT"}, "Index": {"type": "DT_INT32"}, "shrink_axis_mask": {"i": "0"}, "begin_mask": {"i": "15"}, "ellipsis_mask": {"i": "0"}, "new_axis_mask": {"i": "0"}, "end_mask": {"i": "7"}}}, {"name": "Shape", "op": "Shape", "input": ["strided_slice_1"], "attr": {"T": {"type": "DT_FLOAT"}, "out_type": {"type": "DT_INT32"}}}, {"name": "random_uniform/RandomUniform", "op": "RandomUniform", "input": ["Shape"], "attr": {"seed": {"i": "0"}, "T": {"type": "DT_INT32"}, "dtype": {"type": "DT_FLOAT"}, "seed2": {"i": "0"}}}, {"name": "random_uniform/max", "op": "Const", "attr": {"value": {"tensor": {"dtype": "DT_FLOAT", "tensorShape": {}, "floatVal": [1.0]}}, "dtype": {"type": "DT_FLOAT"}}}, {"name": "random_uniform/min", "op": "Const", "attr": {"value": {"tensor": {"dtype": "DT_FLOAT", "tensorShape": {}, "floatVal": [0.0]}}, "dtype": {"type": "DT_FLOAT"}}}, {"name": "random_uniform/sub", "op": "Sub", "input": ["random_uniform/max", "random_uniform/min"], "attr": {"T": {"type": "DT_FLOAT"}}}, {"name": "random_uniform/mul", "op": "Mul", "input": ["random_uniform/RandomUniform", "random_uniform/sub"], "attr": {"T": {"type": "DT_FLOAT"}}}, {"name": "random_uniform", "op": "Add", "input": ["random_uniform/mul", "random_uniform/min"], "attr": {"T": {"type": "DT_FLOAT"}}}, {"name": "LessEqual", "op": "LessEqual", "input": ["random_uniform", "fire_rate"], "attr": {"T": {"type": "DT_FLOAT"}}}, {"name": "Cast", "op": "Cast", "input": ["LessEqual"], "attr": {"SrcT": {"type": "DT_BOOL"}, "Truncate": {"b": false}, "DstT": {"type": "DT_FLOAT"}}}, {"name": "mul_1", "op": "Mul", "input": ["mul", "Cast"], "attr": {"T": {"type": "DT_FLOAT"}}}, {"name": "add", "op": "AddV2", "input": ["x", "mul_1"], "attr": {"T": {"type": "DT_FLOAT"}}}, {"name": "strided_slice_2/stack", "op": "Const", "attr": {"value": {"tensor": {"dtype": "DT_INT32", "tensorShape": {"dim": [{"size": "4"}]}, "tensorContent": "AAAAAAAAAAAAAAAAAwAAAA=="}}, "dtype": {"type": "DT_INT32"}}}, {"name": "strided_slice_2/stack_1", "op": "Const", "attr": {"value": {"tensor": {"dtype": "DT_INT32", "tensorShape": {"dim": [{"size": "4"}]}, "tensorContent": "AAAAAAAAAAAAAAAABAAAAA=="}}, "dtype": {"type": "DT_INT32"}}}, {"name": "strided_slice_2/stack_2", "op": "Const", "attr": {"value": {"tensor": {"dtype": "DT_INT32", "tensorShape": {"dim": [{"size": "4"}]}, "tensorContent": "AQAAAAEAAAABAAAAAQAAAA=="}}, "dtype": {"type": "DT_INT32"}}}, {"name": "strided_slice_2", "op": "StridedSlice", "input": ["add", "strided_slice_2/stack", "strided_slice_2/stack_1", "strided_slice_2/stack_2"], "attr": {"T": {"type": "DT_FLOAT"}, "Index": {"type": "DT_INT32"}, "shrink_axis_mask": {"i": "0"}, "begin_mask": {"i": "7"}, "ellipsis_mask": {"i": "0"}, "new_axis_mask": {"i": "0"}, "end_mask": {"i": "7"}}}, {"name": "MaxPool2d_1", "op": "MaxPool", "input": ["strided_slice_2"], "attr": {"ksize": {"list": {"i": ["1", "3", "3", "1"]}}, "padding": {"s": "U0FNRQ=="}, "T": {"type": "DT_FLOAT"}, "data_format": {"s": "TkhXQw=="}, "strides": {"list": {"i": ["1", "1", "1", "1"]}}}}, {"name": "Greater_1/y", "op": "Const", "attr": {"value": {"tensor": {"dtype": "DT_FLOAT", "tensorShape": {}, "floatVal": [0.1]}}, "dtype": {"type": "DT_FLOAT"}}}, {"name": "Greater_1", "op": "Greater", "input": ["MaxPool2d_1", "Greater_1/y"], "attr": {"T": {"type": "DT_FLOAT"}}}, {"name": "and", "op": "LogicalAnd", "input": ["Greater", "Greater_1"]}, {"name": "Cast_1", "op": "Cast", "input": ["and"], "attr": {"SrcT": {"type": "DT_BOOL"}, "Truncate": {"b": false}, "DstT": {"type": "DT_FLOAT"}}}, {"name": "mul_2", "op": "Mul", "input": ["add", "Cast_1"], "attr": {"T": {"type": "DT_FLOAT"}}}, {"name": "Identity", "op": "Identity", "input": ["mul_2", "^sequential_1/conv2d_2/BiasAdd/ReadVariableOp", "^sequential_1/conv2d_2/Conv2D/ReadVariableOp", "^sequential_1/conv2d_3/BiasAdd/ReadVariableOp", "^sequential_1/conv2d_3/Conv2D/ReadVariableOp"], "attr": {"T": {"type": "DT_FLOAT"}}}], "versions": {"producer": "1.14", "minConsumer": "1.14"}}, "weightsManifest": []}`], {type: 'application/json'}));